{"version":"1.0","truncation":null,"padding":null,"added_tokens":[],"normalizer":{"type":"Sequence","normalizers":[{"type":"Strip","strip_left":true,"strip_right":true},{"type":"NFC"}]},"pre_tokenizer":{"type":"ByteLevel","add_prefix_space":true,"trim_offsets":true},"post_processor":{"type":"ByteLevel","add_prefix_space":true,"trim_offsets":true},"decoder":{"type":"ByteLevel","add_prefix_space":true,"trim_offsets":true},"model":{"dropout":null,"unk_token":null,"continuing_subword_prefix":null,"end_of_word_suffix":null,"fuse_unk":false,"vocab":{"!":0,"$":1,"%":2,"'":3,"*":4,",":5,"-":6,".":7,"/":8,"0":9,"1":10,"2":11,"3":12,"4":13,"5":14,"6":15,"7":16,"8":17,"9":18,";":19,"?":20,"A":21,"B":22,"C":23,"D":24,"E":25,"F":26,"G":27,"H":28,"I":29,"J":30,"K":31,"L":32,"M":33,"N":34,"O":35,"P":36,"Q":37,"R":38,"S":39,"T":40,"U":41,"V":42,"W":43,"X":44,"Y":45,"Z":46,"[":47,"]":48,"_":49,"a":50,"b":51,"c":52,"d":53,"e":54,"f":55,"g":56,"h":57,"i":58,"j":59,"k":60,"l":61,"m":62,"n":63,"o":64,"p":65,"q":66,"r":67,"s":68,"t":69,"u":70,"v":71,"w":72,"x":73,"y":74,"z":75,"~":76,"¡":77,"¢":78,"£":79,"¤":80,"§":81,"¨":82,"©":83,"ª":84,"®":85,"°":86,"±":87,"³":88,"´":89,"¶":90,"¼":91,"Â":92,"Ã":93,"Ċ":94,"Ġ":95,"ģ":96,"Ħ":97,"ī":98,"Į":99,"ĸ":100,"ľ":101,"Ł":102,"ł":103,"Ń":104,"ch":105,"en":106,"er":107,"Ġd":108,"in":109,"ie":110,"ich":111,"Ġs":112,"st":113,"Ġw":114,"ĠS":115,"ein":116,"as":117,"an":118,"Ġm":119,"Ġn":120,"un":121,"Ġh":122,"ge":123,"ei":124,"ĠW":125,"ĠD":126,"Ġi":127,"au":128,"ĠI":129,"icht":130,"Ã¼":131,"es":132,"ir":133,"te":134,"ll":135,"ĠSie":136,"Ġb":137,"ar":138,"ĠM":139,"Ġein":140,"Ġnicht":141,"Ġv":142,"ĠE":143,"ĠIch":144,"ĠA":145,"Ġha":146,"Ġk":147,"Ã¤":148,"hr":149,"gen":150,"Ġist":151,"Ġich":152,"on":153,"ĠH":154,"Ġge":155,"ĠG":156,"Ġun":157,"Ġz":158,"or":159,"Ġdas":160,"it":161,"Ġdie":162,"ĠB":163,"Ã¶":164,"Ġau":165,"ach":166,"ĠN":167,"ĠK":168,"al":169,"Ġzu":170,"mm":171,"ten":172,"ben":173,"ĠF":174,"Ġg":175,"sch":176,"et":177,"Ġf":178,"ber":179,"de":180,"ĠJ":181,"Ġdu":182,"Ġes":183,"der":184,"ier":185,"ĠL":186,"Ã¼r":187,"eh":188,"Ġl":189,"ss":190,"ann":191,"Ġer":192,"Ġwir":193,"Ġsch":194,"den":195,"re":196,"Ġa":197,"ter":198,"Ġder":199,"em":200,"Ġund":201,"och":202,"el":203,"hn":204,"Ġden":205,"Ġso":206,"ĠT":207,"ur":208,"Ġver":209,"ck":210,"ĠP":211,"ĠV":212,"Ġin":213,"ÃŁ":214,"ig":215,"ĠDas":216,"Ġsie":217,"be":218,"lich":219,"Ġan":220,"ut":221,"um":222,"ĠU":223,"eine":224,"ind":225,"at":226,"enn":227,"Ġmit":228,"ag":229,"ĠR":230,"ĠJa":231,"omm":232,"ĠWas":233,"ĠSch":234,"Ġmir":235,"ung":236,"Ġauf":237,"Ġj":238,"Ġwar":239,"Ãī":240,"Ġhat":241,"Ġmich":242,"Ġt":243,"ĠUn":244,"am":245,"ĠEr":246,"eu":247,"eit":248,"Ġwie":249,"le":250,"ehr":251,"rau":252,"Ġsich":253,"ĠZ":254,"Ġsind":255,"Ã¶n":256,"oll":257,"Ġbe":258,"ĠO":259,"Ġgeh":260,"ĠEs":261,"etz":262,"ser":263,"Ġeine":264,"Ġdass":265,"ĠfÃ¼r":266,"ĠDu":267,"ĠWir":268,"Ġda":269,"ĠDie":270,"ro":271,"ehen":272,"sen":273,"Ġwas":274,"Ġhaben":275,"fen":276,"is":277,"Ġhabe":278,"ank":279,"ssen":280,"ra":281,"Ġdich":282,"Ġnoch":283,"ill":284,"Ġwer":285,"Ġaus":286,"ĠUnd":287,"Ġvon":288,"ĠC":289,"Ġhier":290,"ĠWie":291,"chen":292,"se":293,"ĠSt":294,"Ġmein":295,"rÃ¼":296,"ĠEin":297,"Ġall":298,"bt":299,"and":300,"Ġwei":301,"ĠNein":302,"ol":303,"acht":304,"Ã¶r":305,"ft":306,"Ġo":307,"ĠVer":308,"Ġihn":309,"ste":310,"Ġkann":311,"Ġsein":312,"Ġbin":313,"hl":314,"ern":315,"Ġauch":316,"Ġr":317,"Ġeinen":318,"Ġal":319,"Ġdir":320,"iel":321,"ĠIhr":322,"Ġuns":323,"Ġihr":324,"Ġdem":325,"ĠAn":326,"Ã¤n":327,"all":328,"Ġnur":329,"ĠAber":330,"Ã¼ber":331,"ĠAu":332,"il":333,"ommen":334,"Ã¶nn":335,"cht":336,"etzt":337,"eg":338,"Ġum":339,"om":340,"itte":341,"imm":342,"ĠHer":343,"rin":344,"Ġsoll":345,"Ġvor":346,"isch":347,"ist":348,"Ġmu":349,"Ã¤t":350,"Ġnach":351,"Ġschon":352,"Ġp":353,"ent":354,"ff":355,"anz":356,"Ġwird":357,"agen":358,"os":359,"ĠkÃ¶nn":360,"kt":361,"Ġals":362,"ĠÃ¼ber":363,"ort":364,"Ġdoch":365,"ĠGe":366,"was":367,"ot":368,"rei":369,"hnen":370,"Ġwill":371,"Ġim":372,"Ġwenn":373,"Ġaber":374,"Ġbei":375,"Ġet":376,"Ġst":377,"Ġsp":378,"lle":379,"ĠWar":380,"ul":381,"Ġwoll":382,"ahr":383,"achen":384,"ĠWo":385,"ĠDer":386,"lau":387,"anke":388,"ĠweiÃŁ":389,"Ġwo":390,"Ġgut":391,"Ġmal":392,"gt":393,"ĠIhnen":394,"Ġetwas":395,"Ġwerden":396,"Ġman":397,"ĠWenn":398,"wei":399,"ĠHerr":400,"he":401,"ad":402,"Ġre":403,"Ġges":404,"mmer":405,"'s":406,"Ġhast":407,"Ġja":408,"tet":409,"Ġmuss":410,"Ġnichts":411,"Ġmehr":412,"rÃ¼ck":413,"ik":414,"assen":415,"eute":416,"ug":417,"ass":418,"Ġkein":419,"sten":420,"Ġmeine":421,"Ġlie":422,"ĠSo":423,"lei":424,"ken":425,"ĠHa":426,"rie":427,"hm":428,"Ġdenn":429,"Ġsehr":430,"und":431,"ĠDa":432,"ĠIn":433,"Ġab":434,"Ġkeine":435,"Ġ1":436,"Ã¤r":437,"eben":438,"ger":439,"so":440,"Ġher":441,"ĠÃ":442,"Ġnie":443,"Ġbes":444,"la":445,"ĠDanke":446,"ige":447,"ne":448,"Ġkomm":449,"est":450,"Ġdann":451,"zu":452,"Ġjetzt":453,"ĠSp":454,"Ġander":455,"ĠAl":456,"ĠFrau":457,"ner":458,"lo":459,"agt":460,"hen":461,"che":462,"aus":463,"issen":464,"ion":465,"ĠAr":466,"Ġwieder":467,"Ġalles":468,"Ġbist":469,"iert":470,"igen":471,"ĠwÃ¼r":472,"lie":473,"ĠmÃ¼":474,"Ġgeht":475,"iss":476,"us":477,"uten":478,"Ġviel":479,"ielle":480,"ru":481,"eil":482,"Ġdar":483,"bst":484,"bei":485,"Ġoder":486,"sp":487,"ĠGes":488,"ĠÃī":489,"ielleicht":490,"pf":491,"ĠMann":492,"00":493,"men":494,"ĠBe":495,"orgen":496,"ing":497,"ht":498,"Ġzum":499,"her":500,"ibt":501,"ĠWarum":502,"Ġdes":503,"ĠkÃ¶nnen":504,"ĠWer":505,"ang":506,"Ġimmer":507,"Ã¼ck":508,"Ġbitte":509,"Ġganz":510,"ÃŁen":511,"ieren":512,"ick":513,"zen":514,"Ġsagen":515,"ĠNicht":516,"kommen":517,"eid":518,"Ġsehen":519,"pp":520,"ĠHier":521,"Ġmachen":522,"Ġunser":523,"ĠEn":524,"chte":525,"ĠRe":526,"Ġdein":527,"Ġhin":528,"Ġihm":529,"ant":530,"Ġtun":531,"rÃ¤":532,"ab":533,"ater":534,"gel":535,"uld":536,"Ġgew":537,"ien":538,"ĠMr":539,"Ġglau":540,"im":541,"ĠLie":542,"Ġgen":543,"Ġhei":544,"Ġgibt":545,"ĠFl":546,"Ġeiner":547,"Ġeinem":548,"Ġgef":549,"ĠIst":550,"Ġwerde":551,"ffen":552,"ĠAuf":553,"fe":554,"ĠDann":555,"Ġste":556,"ĠhÃ¤t":557,"Ã¶rt":558,"Ã¼n":559,"ĠmÃ¶":560,"Ġwollen":561,"inn":562,"ĠmÃ¼ssen":563,"ĠwÃ¼rde":564,"ke":565,"ĠzurÃ¼ck":566,"Ġkl":567,"ĠBitte":568,"Ġhab":569,"ze":570,"eld":571,"ĠFre":572,"schen":573,"ĠZeit":574,"mal":575,"Ġent":576,"ĠMa":577,"ĠKomm":578,"ett":579,"ert":580,"bl":581,"Ġgehen":582,"Ġbrau":583,"Ġverst":584,"ĠOh":585,"ange":586,"Ġweg":587,"bend":588,"Ġalle":589,"Ġbis":590,"Ġsag":591,"Ġeu":592,"uch":593,"Ã¶ren":594,"Ġ2":595,"ĠNa":596,"ĠFr":597,"Ã¤re":598,"ichtig":599,"Ġje":600,"leich":601,"Ġam":602,"hal":603,"Ġwissen":604,"Ġgesch":605,"age":606,"ĠHall":607,"ade":608,"sst":609,"Ġhatte":610,"ute":611,"egen":612,"ungen":613,"unden":614,"Ġdies":615,"Ġverl":616,"ĠVor":617,"Ġwur":618,"Ġheute":619,"arr":620,"heit":621,"ĠSir":622,"ehmen":623,"ĠJo":624,"ĠMein":625,"ĠschÃ¶n":626,"ap":627,"Ġkenn":628,"ver":629,"hren":630,"stell":631,"Ġsel":632,"ĠAbend":633,"ĠHallo":634,"iz":635,"Ġlos":636,"immt":637,"klich":638,"ri":639,"ĠGut":640,"ĠMan":641,"Ġkommen":642,"ĠNacht":643,"ache":644,"ĠRu":645,"ĠJetzt":646,"art":647,"Ġdur":648,"amm":649,"Ġblei":650,"Ġunter":651,"ĠhÃ¤tte":652,"ĠMit":653,"ĠMon":654,"ĠMiss":655,"ha":656,"gend":657,"eigen":658,"ĠGeh":659,"ffe":660,"ĠVielleicht":661,"ĠIhre":662,"Ġdiese":663,"Ġwollte":664,"Ġwohl":665,"ĠWei":666,"ĠGeld":667,"Ġdurch":668,"ĠDo":669,"amit":670,"ĠÃīch":671,"ĠwÃ¤re":672,"ĠSe":673,"lÃ¼ck":674,"br":675,"sehen":676,"ĠFÃ¼r":677,"Ġrau":678,"ĠAch":679,"ĠHau":680,"hne":681,"bar":682,"lt":683,"angen":684,"ĠPro":685,"ĠVater":686,"Ġkommt":687,"Ġgro":688,"Ġeuch":689,"Ġbesser":690,"ster":691,"ÃīÃī":692,"onn":693,"ess":694,"ĠLeben":695,"gst":696,"Ġsicher":697,"under":698,"Ġger":699,"ÃŁt":700,"Ã¼rlich":701,"atÃ¼rlich":702,"me":703,"sam":704,"ĠHo":705,"Ġget":706,"ĠGesch":707,"Ġwurde":708,"ringen":709,"ast":710,"ĠCh":711,"anden":712,"rechen":713,"Ġmeinen":714,"ĠKl":715,"ehe":716,"ald":717,"Ġgleich":718,"Ġgesagt":719,"ĠGr":720,"ĠTag":721,"Ġar":722,"Ġschw":723,"Ġweiter":724,"ahl":725,"Ġber":726,"ĠMar":727,"inden":728,"auf":729,"Ã¼t":730,"alt":731,"ĠPf":732,"tel":733,"unge":734,"ĠGuten":735,"Ġzwei":736,"Ġwirklich":737,"su":738,"ĠRo":739,"ĠEine":740,"ochen":741,"ott":742,"Ġlange":743,"nell":744,"ĠmÃ¶chte":745,"ĠKa":746,"ahren":747,"atz":748,"ÃŁe":749,"achte":750,"unde":751,"inder":752,"Ġgern":753,"Ġdamit":754,"ine":755,"ĠAll":756,"Ġeinf":757,"ĠGen":758,"Ġraus":759,"ĠSchw":760,"Ġgem":761,"ord":762,"pt":763,"Ġmacht":764,"Ġzur":765,"dem":766,"Ġwaren":767,"Ġlassen":768,"ĠOr":769,"ragen":770,"ĠSchl":771,"ĠEnt":772,"kl":773,"ĠSte":774,"Ġjem":775,"ĠkÃ¶nnte":776,"ĠHaben":777,"ĠLeute":778,"ell":779,"Ġru":780,"Ã¤ch":781,"glich":782,"ischen":783,"esen":784,"ĠMen":785,"Ġgesehen":786,"ĠDen":787,"ĠKo":788,"ÃŁer":789,"ĠJahr":790,"Ã¤d":791,"ĠÃĮ":792,"asch":793,"ĠAb":794,"Ã¤u":795,"unter":796,"ĠMÃ¤n":797,"Ġgar":798,"ĠLu":799,"ehl":800,"ĠGef":801,"ĠAlso":802,"Ġhal":803,"uss":804,"ĠMorgen":805,"ĠNun":806,"elt":807,"ĠgehÃ¶rt":808,"son":809,"ĠSei":810,"Ã¤hl":811,"itz":812,"ĠNach":813,"ey":814,"ĠDar":815,"oren":816,"ĠNur":817,"uldig":818,"ame":819,"inde":820,"ĠWieso":821,"Ġselbst":822,"Ġins":823,"Ġeinfach":824,"hin":825,"Ġanderen":826,"wo":827,"ĠZu":828,"aar":829,"von":830,"att":831,"Ġkeinen":832,"ĠFreund":833,"arry":834,"Ġsagte":835,"Ġneu":836,"ĠBl":837,"amen":838,"Ġdort":839,"Ġnein":840,"ekt":841,"iele":842,"ĠKeine":843,"ce":844,"end":845,"iv":846,"Ġdieser":847,"ĠMeine":848,"Ġschnell":849,"Ġdeine":850,"ckt":851,"Ġreden":852,"ah":853,"war":854,"Ġvielleicht":855,"ĠGott":856,"Ġerst":857,"ĠJe":858,"ĠPl":859,"Ġpass":860,"Ã¤ll":861,"cken":862,"Ġsollte":863,"fÃ¼r":864,"ĠGer":865,"Ġ3":866,"ĠWieder":867,"Ġvom":868,"iger":869,"ĠMaj":870,"Ġho":871,"Ġrein":872,"Ġseine":873,"ĠMal":874,"ielen":875,"Ġarbei":876,"ĠBer":877,"Ġle":878,"Ġglaube":879,"wa":880,"nung":881,"ĠSind":882,"na":883,"Ġwen":884,"Ġschl":885,"vor":886,"Ġgegen":887,"Ġwahr":888,"ĠÃľ":889,"ĠPar":890,"ĠMÃ¤nner":891,"beit":892,"nen":893,"mer":894,"utter":895,"geben":896,"ĠKind":897,"Ġob":898,"ĠAus":899,"asst":900,"ĠfÃ¼":901,"itt":902,"Ġihnen":903,"ĠJunge":904,"Ġwillst":905,"ahn":906,"ĠUm":907,"ante":908,"ĠHat":909,"Ġe":910,"Ġir":911,"liche":912,"immer":913,"ĠHast":914,"ĠKinder":915,"Ġgenug":916,"ammen":917,"we":918,"ĠwÃ¤r":919,"Ġalso":920,"iere":921,"ĠLass":922,"Ġwirst":923,"Ġange":924,"Ġohne":925,"Ġmeinem":926,"ande":927,"ĠMom":928,"ĠBes":929,"Ġbest":930,"000":931,"schl":932,"etzen":933,"Ġpaar":934,"scha":935,"tern":936,"Ġmeiner":937,"ĠAnge":938,"ĠLe":939,"fÃ¼":940,"ĠKommen":941,"raten":942,"Ã¤dchen":943,"zei":944,"Ġzie":945,"Ġeigen":946,"ation":947,"Ġkannst":948,"ho":949,"ĠBo":950,"ĠTo":951,"ĠAngst":952,"ĠArbeit":953,"asse":954,"gessen":955,"Ġweil":956,"estÃ¤t":957,"ĠMoment":958,"Ġihre":959,"Ġviele":960,"ia":961,"Ġdr":962,"Ġgest":963,"nis":964,"ĠHaus":965,"sche":966,"dern":967,"Ġgenau":968,"fall":969,"Ġmorgen":970,"eiten":971,"Ġtut":972,"Ã¤nd":973,"ĠMajestÃ¤t":974,"zÃ¤hl":975,"Ġhel":976,"ĠMÃ¤dchen":977,"Ġdiesem":978,"ĠHause":979,"ĠÃľber":980,"keit":981,"richt":982,"Ġ'":983,"ĠBei":984,"ungs":985,"rage":986,"rank":987,"ĠDank":988,"Ġdiesen":989,"ĠNe":990,"ollen":991,"Ġdachte":992,"Ġsollen":993,"ĠFlug":994,"per":995,"ĠGute":996,"schie":997,"ren":998,"ĠNatÃ¼rlich":999,"tlich":1000,"ust":1001,"ĠWiedersehen":1002,"reich":1003,"Ġson":1004,"Ġzus":1005,"Ġversu":1006,"Ġbleiben":1007,"net":1008,"ĠEntsch":1009,"Ã¤ft":1010,"eln":1011,"Ġandere":1012,"id":1013,"zt":1014,"Ã¤hr":1015,"Ġfre":1016,"ib":1017,"ue":1018,"zeu":1019,"Ġsei":1020,"ĠGlÃ¼ck":1021,"ische":1022,"Ġgerade":1023,"aten":1024,"fl":1025,"Ġ$":1026,"schw":1027,"Ġlang":1028,"Ġdavon":1029,"Ġgemacht":1030,"fort":1031,"ĠMir":1032,"Ġgeb":1033,"ĠFall":1034,"Ġgeben":1035,"Ġtrin":1036,"Ã¤m":1037,"Ġunsere":1038,"Ġpassiert":1039,"ard":1040,"Ġerf":1041,"ĠAlles":1042,"di":1043,"test":1044,"ĠMik":1045,"Ġkonn":1046,"ĠAugen":1047,"Ġjemand":1048,"aufen":1049,"ĠLeid":1050,"Ġwarum":1051,"Ġallein":1052,"ĠRecht":1053,"Ã¤llt":1054,"ech":1055,"ĠKÃ¶nn":1056,"Ġbef":1057,"Ġzusammen":1058,"ĠSag":1059,"Ġdarf":1060,"bo":1061,"ĠDr":1062,"Ġglauben":1063,"Ġmusst":1064,"komm":1065,"sie":1066,"Ġwunder":1067,"one":1068,"ertig":1069,"ĠWasser":1070,"ay":1071,"og":1072,"ĠWeg":1073,"Ġkrie":1074,"ĠLos":1075,"Ġletz":1076,"Ġlieber":1077,"hst":1078,"gar":1079,"pl":1080,"Ġsagt":1081,"ĠMutter":1082,"ĠHe":1083,"Ġbeg":1084,"Ġdrei":1085,"ĠSehr":1086,"aum":1087,"llen":1088,"ĠMin":1089,"halten":1090,"Ġhelfen":1091,"Ġbrin":1092,"Ã¤ter":1093,"Ġausge":1094,"Ġganze":1095,"ĠLiebe":1096,"chten":1097,"Ġdanke":1098,"einen":1099,"Ġeinge":1100,"Ġeines":1101,"achten":1102,"Ġkennen":1103,"ĠUnter":1104,"ĠOder":1105,"Ġsprechen":1106,"Ġsu":1107,"ĠLand":1108,"ennen":1109,"Ġwegen":1110,"adt":1111,"ppe":1112,"zie":1113,"orden":1114,"ktor":1115,"wer":1116,"ĠBr":1117,"lichen":1118,"Ġsteht":1119,"Ġsofort":1120,"Ġkomme":1121,"sste":1122,"ĠBarry":1123,"ĠerzÃ¤hl":1124,"lafen":1125,"ĠOrd":1126,"ingen":1127,"Ġdenken":1128,"Ġsieht":1129,"Ġbrauchen":1130,"icher":1131,"ĠSoll":1132,"ĠWill":1133,"teress":1134,"ĠPap":1135,"halb":1136,"ĠY":1137,"Ġmag":1138,"ont":1139,"Ġrichtig":1140,"Ġrecht":1141,"ĠOrdnung":1142,"Ġfinden":1143,"inge":1144,"ĠPol":1145,"ats":1146,"Ġgehe":1147,"ĠKopf":1148,"det":1149,"ers":1150,"Ġsol":1151,"ĠOber":1152,"Ġsollten":1153,"Ġverstehe":1154,"Ġirgend":1155,"hig":1156,"Ġseit":1157,"ĠHil":1158,"rot":1159,"aschine":1160,"ĠhÃ¶ren":1161,"ĠWa":1162,"ĠHerz":1163,"ander":1164,"Ã¶t":1165,"eht":1166,"Ġschle":1167,"kel":1168,"ĠMÃ¶":1169,"ĠKann":1170,"Ġvoll":1171,"Ġlei":1172,"olen":1173,"mand":1174,"Ġweit":1175,"gehen":1176,"ĠUhr":1177,"Ġdazu":1178,"ĠStadt":1179,"ĠheiÃŁt":1180,"sieur":1181,"gl":1182,"Ġkam":1183,"orge":1184,"Ġfertig":1185,"Ġbesch":1186,"ĠMonsieur":1187,"Ġhalten":1188,"ĠBett":1189,"Ġlhr":1190,"rÃ¼ckt":1191,"ĠDoktor":1192,"schaft":1193,"ja":1194,"Ġgetan":1195,"dr":1196,"rag":1197,"Ġbringen":1198,"ĠMenschen":1199,"hau":1200,"Ã¼ss":1201,"ĠTÃ¼r":1202,"Ġmach":1203,"ĠWahr":1204,"Ġleben":1205,"Ġdaran":1206,"Ġdieses":1207,"ĠBis":1208,"stand":1209,"Ġnehmen":1210,"ĠnatÃ¼rlich":1211,"ĠCo":1212,"pr":1213,"eim":1214,"ichte":1215,"ĠkÃ¶nnten":1216,"Ġliebe":1217,"ic":1218,"qu":1219,"ĠfrÃ¼":1220,"Ġdenke":1221,"ĠGew":1222,"Ġbereit":1223,"Ġarbeiten":1224,"Ã¤lt":1225,"Ġflie":1226,"Ġvergessen":1227,"Ġ10":1228,"ĠwÃ¼rden":1229,"ĠDoc":1230,"bracht":1231,"ĠPfer":1232,"ĠSehen":1233,"ĠVerzei":1234,"ĠspÃ¤t":1235,"ĠspÃ¤ter":1236,"Ã¼b":1237,"esser":1238,"Ġeinmal":1239,"org":1240,"reck":1241,"Ġbew":1242,"Ã±":1243,"orm":1244,"ĠKein":1245,"ele":1246,"ĠSohn":1247,"ĠDarf":1248,"fol":1249,"Ġgel":1250,"Ġgute":1251,"schein":1252,"ĠTut":1253,"Ġwarten":1254,"ĠAnt":1255,"ĠAls":1256,"ĠRuhe":1257,"sinn":1258,"ĠLa":1259,"ĠÃĦ":1260,"ĠParis":1261,"ief":1262,"igt":1263,"ĠdafÃ¼r":1264,"ĠNichts":1265,"Ġwus":1266,"Ġvert":1267,"bringen":1268,"ĠdÃ¼r":1269,"ĠIm":1270,"ĠMach":1271,"ĠGehen":1272,"ĠStunden":1273,"wort":1274,"ĠAm":1275,"Ġinteress":1276,"ĠHerren":1277,"Ġkenne":1278,"ĠSeÃ±":1279,"ĠSeÃ±or":1280,"ak":1281,"Ġ5":1282,"ĠBÃ¼r":1283,"Ġschuldig":1284,"Ġverh":1285,"ĠEinen":1286,"Ġklar":1287,"Ġjeden":1288,"ka":1289,"ko":1290,"Ġeben":1291,"ĠWissen":1292,"Ġbeh":1293,"ed":1294,"zeit":1295,"ĠEx":1296,"ĠNoch":1297,"elen":1298,"reiben":1299,"ĠFrauen":1300,"ĠgroÃŁ":1301,"Ġgerne":1302,"ĠLuft":1303,"ichen":1304,"ĠDe":1305,"ĠHand":1306,"Ġfest":1307,"Ġnun":1308,"aut":1309,"itten":1310,"Ġaufge":1311,"Ġrei":1312,"allen":1313,"Ġheiraten":1314,"ĠJoy":1315,"ĠSicher":1316,"ĠKom":1317,"urt":1318,"Ġoben":1319,"ou":1320,"ler":1321,"alten":1322,"etten":1323,"Ã¤nde":1324,"ild":1325,"ĠJahre":1326,"ve":1327,"ĠSy":1328,"loss":1329,"erst":1330,"ĠWelt":1331,"ĠEl":1332,"ĠGanz":1333,"ĠRei":1334,"Ġbez":1335,"ĠKaffe":1336,"bes":1337,"Ġ4":1338,"ĠSache":1339,"Ġhoch":1340,"Ġbet":1341,"ĠBen":1342,"Ã¶nig":1343,"Ġvorbei":1344,"ĠEu":1345,"ĠBlei":1346,"ehn":1347,"ĠPo":1348,"old":1349,"Ġrunter":1350,"Ġbeide":1351,"ĠweiÃŁt":1352,"Ġeg":1353,"Ġsage":1354,"eira":1355,"Ġerwar":1356,"ĠVon":1357,"Ġbevor":1358,"Ã¤nder":1359,"stellen":1360,"Ġsonst":1361,"ingt":1362,"ĠDoch":1363,"essen":1364,"ĠkÃ¼":1365,"Ã¤sst":1366,"ĠHoch":1367,"ette":1368,"ĠDiese":1369,"ĠFranz":1370,"ĠPoliz":1371,"hi":1372,"ĠAut":1373,"ĠBist":1374,"stellt":1375,"ĠGener":1376,"err":1377,"eint":1378,"eist":1379,"ĠIde":1380,"arm":1381,"itzen":1382,"etter":1383,"Ġscha":1384,"hnt":1385,"ĠVo":1386,"ĠOk":1387,"ĠBef":1388,"ĠMinuten":1389,"fon":1390,"if":1391,"los":1392,"Ġmache":1393,"ĠMam":1394,"ĠNie":1395,"ĠTage":1396,"Ġverd":1397,"Ġdran":1398,"stÃ¤nd":1399,"ĠMaschine":1400,"Ġgab":1401,"Ġdabei":1402,"Ġhinter":1403,"wohl":1404,"Ġsah":1405,"ĠIr":1406,"ĠMad":1407,"ĠglÃ¼ck":1408,"ĠverrÃ¼ckt":1409,"utz":1410,"Ġstimmt":1411,"Ġabge":1412,"Ġben":1413,"Ġgekommen":1414,"ĠFrage":1415,"ĠOn":1416,"ffiz":1417,"blem":1418,"Ġschwer":1419,"Ġhabt":1420,"ĠFil":1421,"del":1422,"ĠLassen":1423,"Ġbeim":1424,"Ġanders":1425,"Ġwusste":1426,"ĠWollen":1427,"ĠDon":1428,"ĠHÃ¶r":1429,"Ġgebe":1430,"ĠKrie":1431,"Ġfinde":1432,"licher":1433,"run":1434,"sicht":1435,"cher":1436,"ĠKan":1437,"Ġfrei":1438,"ehme":1439,"ĠRit":1440,"ĠZwei":1441,"Ġverstehen":1442,"Ġkonnte":1443,"ucht":1444,"ĠSagen":1445,"ĠhÃ¶r":1446,"ĠWel":1447,"Ġseinen":1448,"ĠGeb":1449,"Ã¤rt":1450,"hung":1451,"rat":1452,"auen":1453,"ĠAlle":1454,"ĠBru":1455,"Ġverm":1456,"Ġheraus":1457,"iff":1458,"nehmen":1459,"ĠSer":1460,"ĠKÃ¶nig":1461,"ĠFrank":1462,"Ġwenig":1463,"Ġbald":1464,"Ãīich":1465,"ĠIhren":1466,"ĠGed":1467,"ĠArt":1468,"ĠGrund":1469,"fft":1470,"lassen":1471,"rÃ¶":1472,"Ġdeinen":1473,"ĠMrs":1474,"Ġtrinken":1475,"Ġegal":1476,"Ġsehe":1477,"ĠMacht":1478,"scht":1479,"ĠTe":1480,"Ġhatten":1481,"Ġtre":1482,"olle":1483,"lage":1484,"uldigen":1485,"zeug":1486,"aÃŁ":1487,"Ġdrin":1488,"eiden":1489,"ichten":1490,"hrt":1491,"Ġgek":1492,"Ġfast":1493,"annt":1494,"ĠJahren":1495,"ĠVert":1496,"Ġstehen":1497,"Ġentsch":1498,"Ġneue":1499,"aÃī":1500,"dacht":1501,"iser":1502,"Ġdrau":1503,"Ġnett":1504,"Ġeinz":1505,"Ġging":1506,"Ġverk":1507,"ĠProblem":1508,"mann":1509,"ĠWor":1510,"ĠWunder":1511,"ĠmÃ¶glich":1512,"ĠHaupt":1513,"ase":1514,"Ã¶s":1515,"ĠNamen":1516,"Ãīe":1517,"Ġtot":1518,"amp":1519,"ĠCom":1520,"ĠCap":1521,"ĠhÃ¤tten":1522,"Ġbleibt":1523,"Ã©":1524,"ĠWann":1525,"ĠWort":1526,"ĠMord":1527,"Ã¤l":1528,"ĠHÃ¶ren":1529,"Ġzw":1530,"Ã¶re":1531,"Ġschick":1532,"ĠtÃ¶":1533,"rieben":1534,"Ġbrauche":1535,"ĠHilfe":1536,"eiratet":1537,"hle":1538,"ĠFam":1539,"umen":1540,"ĠSchÃ¶n":1541,"ĠUnser":1542,"ĠGenau":1543,"ĠdÃ¼rfen":1544,"ĠwÃ¼n":1545,"ĠEssen":1546,"eter":1547,"Ġfur":1548,"cke":1549,"ielt":1550,"Ġgewesen":1551,"blick":1552,"ahlen":1553,"wÃ¼r":1554,"Ġwichtig":1555,"Ġessen":1556,"hnung":1557,"ĠTr":1558,"ĠSchon":1559,"ĠZie":1560,"Ġbede":1561,"Ġbekommen":1562,"hlen":1563,"Ġspielen":1564,"Ġklein":1565,"ĠNew":1566,"runken":1567,"Ġwel":1568,"ork":1569,"ĠKam":1570,"ĠdarÃ¼ber":1571,"ĠIdee":1572,"ps":1573,"ĠQ":1574,"ĠWeil":1575,"ĠGrÃ¼":1576,"ĠBÃ¼":1577,"Ġschlafen":1578,"ĠStunde":1579,"Ġseiner":1580,"Ġliegt":1581,"eilen":1582,"ĠEnde":1583,"ĠFÃ¼rst":1584,"ĠFamil":1585,"ph":1586,"onder":1587,"Ġfahren":1588,"ienst":1589,"ĠGericht":1590,"ĠMesser":1591,"ĠGro":1592,"ĠGlau":1593,"als":1594,"urz":1595,"ĠVerst":1596,"Ġbraucht":1597,"ĠBlut":1598,"ĠPolizei":1599,"ny":1600,"inner":1601,"Ġster":1602,"Ġna":1603,"Ġfal":1604,"ĠTele":1605,"ĠPier":1606,"ath":1607,"Ġwarst":1608,"ĠZeu":1609,"ĠKÃ¶nnen":1610,"ĠOnkel":1611,"Ã¼gen":1612,"Ġbr":1613,"Ġleid":1614,"ĠIhrer":1615,"iges":1616,"ppen":1617,"Ġgefunden":1618,"Ã¼nf":1619,"Ġ20":1620,"don":1621,"pfen":1622,"auft":1623,"berg":1624,"ĠVielen":1625,"ĠPapa":1626,"ĠGeneral":1627,"weg":1628,"Ġseid":1629,"ĠMÃ¼":1630,"ĠAt":1631,"ĠFein":1632,"euer":1633,"legen":1634,"ĠOffiz":1635,"Ġalte":1636,"Ġpro":1637,"ulein":1638,"weise":1639,"ikan":1640,"rÃ¤ulein":1641,"ĠMiki":1642,"uter":1643,"Ġen":1644,"rink":1645,"Ġstar":1646,"ĠWoher":1647,"Ġbisschen":1648,"ĠKaiser":1649,"Ġde":1650,"ĠFrÃ¤ulein":1651,"Ġersten":1652,"Ġsogar":1653,"geln":1654,"ĠWeihn":1655,"Ġhoffe":1656,"ĠYork":1657,"ĠWahrheit":1658,"io":1659,"Ġehr":1660,"ĠnÃ¤ch":1661,"unkt":1662,"ĠEuch":1663,"ĠHalt":1664,"ĠBar":1665,"ĠFehl":1666,"rÃ¼cke":1667,"Ġbestimmt":1668,"sk":1669,"ummer":1670,"ĠGar":1671,"ĠBun":1672,"ĠNeu":1673,"Ġverg":1674,"Ġversp":1675,"ĠVerg":1676,"stens":1677,"mlich":1678,"ane":1679,"gesch":1680,"Ã¶ff":1681,"ĠTon":1682,"urch":1683,"ĠStra":1684,"Ġruhig":1685,"haupt":1686,"ĠTelefon":1687,"ĠSeit":1688,"ĠSchla":1689,"ĠZimmer":1690,"Ġdarauf":1691,"klÃ¤r":1692,"ĠwÃ¤ren":1693,"ĠBÃ¼ro":1694,"ĠFilm":1695,"ĠSerge":1696,"Ġnehme":1697,"ĠHeute":1698,"ĠGra":1699,"ĠFe":1700,"Ġguten":1701,"Ġetwa":1702,"Ġschlecht":1703,"ĠglÃ¼cklich":1704,"ĠSergeant":1705,"fel":1706,"haus":1707,"ub":1708,"ĠWat":1709,"ĠMus":1710,"ĠGib":1711,"Ġfr":1712,"ĠlÃ¤sst":1713,"ĠPeg":1714,"ĠSchatz":1715,"ĠCl":1716,"Ġalt":1717,"ĠSpiel":1718,"ĠWeiÃŁt":1719,"ĠGeschÃ¤ft":1720,"ĠÃĦr":1721,"ĠKaffee":1722,"ĠQu":1723,"Ġend":1724,"ĠDinge":1725,"auer":1726,"ĠBill":1727,"Ġfragen":1728,"Ġverschw":1729,"anken":1730,"Ġgeworden":1731,"walt":1732,"ĠSum":1733,"gegen":1734,"ĠGl":1735,"ĠGeist":1736,"sel":1737,"ĠMachen":1738,"ĠHin":1739,"ĠBrie":1740,"Ġlass":1741,"ĠRicht":1742,"ĠSchloss":1743,"Ġoft":1744,"ĠHerrn":1745,"loÃŁ":1746,"ĠgefÃ¤llt":1747,"Ġjeder":1748,"Ġverlassen":1749,"ĠSyb":1750,"Ġsterben":1751,"dlich":1752,"such":1753,"asche":1754,"Ġunten":1755,"Ġrede":1756,"Ġdeinem":1757,"ĠJoey":1758,"Ġfliegen":1759,"ĠBunny":1760,"Ġis":1761,"Ġbek":1762,"ĠPlatz":1763,"ĠOberst":1764,"man":1765,"wie":1766,"ĠhÃ¤lt":1767,"Ġbl":1768,"Ġeins":1769,"ĠKu":1770,"ĠFu":1771,"ĠTh":1772,"ennt":1773,"ĠJawohl":1774,"Ġbekomm":1775,"chtig":1776,"ĠRock":1777,"Ġversuchen":1778,"ĠBefehl":1779,"chst":1780,"ĠWy":1781,"ĠDir":1782,"ĠMich":1783,"ĠNehmen":1784,"Ġverw":1785,"Ġreicht":1786,"ionen":1787,"Ġkleine":1788,"Ġleicht":1789,"ĠSumner":1790,"ain":1791,"macht":1792,"ĠDes":1793,"ĠHoll":1794,"Ã¶ll":1795,"ĠNimm":1796,"ĠTor":1797,"ĠSchu":1798,"Ġwarte":1799,"ĠOb":1800,"Ġseinem":1801,"immen":1802,"ischer":1803,"ruck":1804,"ate":1805,"land":1806,"erk":1807,"ieÃŁen":1808,"ĠWochen":1809,"ĠbÃ¶":1810,"ĠName":1811,"ĠJan":1812,"Ġihren":1813,"ĠGesetz":1814,"ĠFreunde":1815,"ĠMama":1816,"ĠPierre":1817,"ĠWyatt":1818,"des":1819,"erin":1820,"gef":1821,"ĠEt":1822,"Ġerk":1823,"Ġverb":1824,"ĠPart":1825,"ĠAuch":1826,"ĠSpr":1827,"ĠgroÃŁe":1828,"echs":1829,"gang":1830,"voll":1831,"chmal":1832,"erl":1833,"ĠhÃ¼b":1834,"ons":1835,"ĠKar":1836,"ĠKrank":1837,"ĠLo":1838,"Ġverlie":1839,"atte":1840,"ĠWarte":1841,"ĠChar":1842,"ĠKrieg":1843,"mÃ¶":1844,"nst":1845,"wegen":1846,"ĠWÃ¼r":1847,"Ġfort":1848,"ĠUr":1849,"Ġjung":1850,"olz":1851,"ernt":1852,"Ġwollten":1853,"Ġgeschehen":1854,"ĠGeschichte":1855,"ĠMensch":1856,"Ġeigentlich":1857,"Ġkriegen":1858,"ĠFehler":1859,"Ġkom":1860,"ĠKn":1861,"Ġfl":1862,"Ġersch":1863,"ochter":1864,"rieden":1865,"ester":1866,"Ġmachst":1867,"ĠNiemand":1868,"ĠFamilie":1869,"ĠWatson":1870,"ack":1871,"abt":1872,"iot":1873,"ĠDame":1874,"ĠMe":1875,"indet":1876,"ĠSchwei":1877,"ĠCar":1878,"ĠWarten":1879,"Ġherum":1880,"Ġanderes":1881,"innen":1882,"ĠKommt":1883,"keiten":1884,"anc":1885,"ĠDein":1886,"ĠHÃ¤nde":1887,"ĠKÃ¼":1888,"reten":1889,"ĠTochter":1890,"ĠChe":1891,"Ã¤ngt":1892,"Ġunseren":1893,"Ġletzte":1894,"wÃ¤rt":1895,"ys":1896,"ĠwÃ¼":1897,"ĠSl":1898,"Ġkurz":1899,"ĠHey":1900,"ĠGem":1901,"ori":1902,"ĠDass":1903,"atur":1904,"Ġunserer":1905,"ĠSek":1906,"ĠHotel":1907,"ĠOrt":1908,"ĠSeite":1909,"ĠVogel":1910,"ibl":1911,"machen":1912,"od":1913,"op":1914,"yp":1915,"Ġdau":1916,"ĠSh":1917,"ĠSachen":1918,"Ġhe":1919,"ĠFÃ¼":1920,"oche":1921,"ĠZug":1922,"Ã¤nger":1923,"hek":1924,"ĠSpaÃŁ":1925,"onnen":1926,"ĠAugenblick":1927,"ĠPferd":1928,"scheinlich":1929,"iothek":1930,"ibliothek":1931,"bel":1932,"ow":1933,"teil":1934,"einander":1935,"ĠMill":1936,"Ġerste":1937,"Ġscheint":1938,"ĠPer":1939,"igung":1940,"atten":1941,"isten":1942,"Ġmusste":1943,"ĠEntschuldigen":1944,"ĠVerzeihung":1945,"organ":1946,"ĠWeihnachten":1947,"wÃ¤rts":1948,"ogen":1949,"zi":1950,"ĠSÃ¼":1951,"ĠSon":1952,"Ġbel":1953,"ĠAle":1954,"ĠLei":1955,"Ġerle":1956,"ĠThe":1957,"agan":1958,"ĠIhrem":1959,"Ġpl":1960,"ĠGeben":1961,"usst":1962,"ĠGeht":1963,"ĠKlar":1964,"ziehen":1965,"tag":1966,"zimmer":1967,"ĠSu":1968,"Ġkrank":1969,"itze":1970,"Ġerw":1971,"pfer":1972,"ĠFlann":1973,"ĠgroÃŁen":1974,"rotz":1975,"ĠBruder":1976,"ĠGroÃŁ":1977,"ĠSchlaf":1978,"utet":1979,"Ġc":1980,"ĠSel":1981,"Ġholen":1982,"irm":1983,"Ġgeg":1984,"ĠKont":1985,"mmern":1986,"ĠFern":1987,"Ġdumm":1988,"ĠLind":1989,"ĠPau":1990,"ĠDies":1991,"immel":1992,"Ġkommst":1993,"ektor":1994,"Ġwunderbar":1995,"ĠfrÃ¼h":1996,"fahren":1997,"ossen":1998,"erv":1999,"ĠSorgen":2000,"ĠBahn":2001,"ĠauÃŁer":2002,"ĠFragen":2003,"Ġanf":2004,"andante":2005,"ĠComandante":2006,"Ġendlich":2007,"ĠFlannagan":2008,"ai":2009,"hÃ¶ren":2010,"kehr":2011,"ob":2012,"ĠMot":2013,"ĠJungen":2014,"ehm":2015,"urm":2016,"rauen":2017,"ĠZig":2018,"isk":2019,"ĠCol":2020,"Ġricht":2021,"ĠÃ¼berhaupt":2022,"ĠMac":2023,"Ġwurden":2024,"wor":2025,"ĠSieh":2026,"ĠAh":2027,"Ġkaum":2028,"ĠfÃ¼nf":2029,"ĠZum":2030,"ĠStimmt":2031,"Ġbringt":2032,"Ã¶llig":2033,"fte":2034,"kst":2035,"ost":2036,"ud":2037,"esse":2038,"ĠkÃ¤m":2039,"hre":2040,"orn":2041,"ĠNummer":2042,"ale":2043,"ĠLad":2044,"ĠWashi":2045,"ĠVerb":2046,"ĠAuÃŁer":2047,"ĠGeorge":2048,"ĠWaffe":2049,"ĠWashizu":2050,"du":2051,"fahr":2052,"ock":2053,"zug":2054,"Ġ8":2055,"Ġwann":2056,"Ġauss":2057,"ĠFahr":2058,"utzen":2059,"Ġhierher":2060,"Ġspr":2061,"Ġkeiner":2062,"Ġziehen":2063,"Ġsuchen":2064,"folg":2065,"ampag":2066,"mitt":2067,"to":2068,"tsam":2069,"ĠSa":2070,"ierig":2071,"Ġtue":2072,"anzen":2073,"Ġ15":2074,"Ġniemand":2075,"ĠJob":2076,"Ġgestern":2077,"ĠerzÃ¤hlt":2078,"ĠKanone":2079,"ĠtÃ¶ten":2080,"iÃī":2081,"Ġ7":2082,"ĠEm":2083,"Ġschlie":2084,"igkeit":2085,"ĠReg":2086,"ĠRichtig":2087,"raum":2088,"Ã¤ng":2089,"ĠWohin":2090,"lossen":2091,"Ġverstanden":2092,"ersÃ¶n":2093,"ga":2094,"ĠSetzen":2095,"ĠSold":2096,"ĠDoll":2097,"ĠHÃ¶":2098,"ĠBro":2099,"ĠFeuer":2100,"ierte":2101,"ĠLon":2102,"Ã¶rder":2103,"Ġlieben":2104,"Ġverloren":2105,"rid":2106,"Ã¤chlich":2107,"andel":2108,"Ġletzten":2109,"ĠdrauÃŁen":2110,"oten":2111,"ink":2112,"Ġwi":2113,"eig":2114,"arbei":2115,"hrer":2116,"ĠHeil":2117,"ĠJul":2118,"Ġschreck":2119,"ĠTats":2120,"uren":2121,"Ġsiehst":2122,"Ġallen":2123,"laufen":2124,"ruch":2125,"ĠGesicht":2126,"Ġganzen":2127,"Ġheira":2128,"brochen":2129,"ĠKranken":2130,"ampagner":2131,"hol":2132,"ufen":2133,"za":2134,"ĠWoche":2135,"Ġeinige":2136,"Ġunbe":2137,"ĠKr":2138,"ĠFen":2139,"ĠFin":2140,"reu":2141,"ĠTyp":2142,"ĠPat":2143,"ĠPass":2144,"enny":2145,"ernen":2146,"reibt":2147,"Ġherein":2148,"ickt":2149,"Ġgefallen":2150,"nahm":2151,"schlagen":2152,"ĠWillst":2153,"ĠSelbst":2154,"ĠZigar":2155,"bung":2156,"ften":2157,"tain":2158,"Ġte":2159,"Ġsetzen":2160,"Ġsechs":2161,"ance":2162,"ĠHimmel":2163,"Ġgegeben":2164,"ĠTa":2165,"Ã¤rchen":2166,"ffentlich":2167,"innern":2168,"Ġverlieren":2169,"ĠGeschw":2170,"vo":2171,"unk":2172,"ĠWein":2173,"ĠDamit":2174,"auber":2175,"ĠbloÃŁ":2176,"ĠHunter":2177,"ĠHelen":2178,"ĠBank":2179,"ager":2180,"ĠWirklich":2181,"Ġalten":2182,"Ġihrem":2183,"ĠAnd":2184,"ĠAuss":2185,"imme":2186,"Ġ19":2187,"riff":2188,"ĠMarlo":2189,"ĠfrÃ¼her":2190,"ĠFeste":2191,"az":2192,"iane":2193,"ĠrÃ¼":2194,"unft":2195,"ĠWe":2196,"ĠDan":2197,"ĠMau":2198,"ĠHel":2199,"Ġgedacht":2200,"ĠJungs":2201,"ĠLarry":2202,"Ġvern":2203,"isst":2204,"Ã¼tzen":2205,"Ġex":2206,"ĠTod":2207,"Ġsondern":2208,"ĠerzÃ¤hlen":2209,"Ġleider":2210,"Ġinteressiert":2211,"ĠEuer":2212,"ĠMusik":2213,"ĠhÃ¼bsch":2214,"fer":2215,"mei":2216,"ĠWen":2217,"ĠHei":2218,"ĠBrÃ¼":2219,"ĠLicht":2220,"ĠTante":2221,"ĠSchau":2222,"Ġoffen":2223,"osa":2224,"reis":2225,"spiel":2226,"Ġdeiner":2227,"ĠLiebl":2228,"Ġsagst":2229,"Ġseltsam":2230,"andelt":2231,"Ã¤ndert":2232,"ĠMadame":2233,"ĠCaptain":2234,"ĠLady":2235,"ĠFenster":2236,"ĠLiebling":2237,"ite":2238,"ino":2239,"ges":2240,"ĠDurch":2241,"Ġbitten":2242,"Ġguter":2243,"ĠTja":2244,"isches":2245,"ĠGegen":2246,"ĠArzt":2247,"ĠÃīie":2248,"ima":2249,"ĠSchwester":2250,"Ġjemanden":2251,"Ã¶tig":2252,"Ġlhre":2253,"Ġverheiratet":2254,"Ġschaffen":2255,"ĠÃĦrger":2256,"ix":2257,"je":2258,"Ã¡":2259,"ĠdrÃ¼":2260,"Ġsitzen":2261,"Ġwe":2262,"ĠSorge":2263,"ĠAmer":2264,"ĠHal":2265,"orf":2266,"achsen":2267,"ĠgrÃ¼":2268,"ĠgrÃ¶":2269,"Ġbesten":2270,"Ġdagegen":2271,"Ġ12":2272,"issi":2273,"ĠEngl":2274,"ĠHof":2275,"ĠSlim":2276,"will":2277,"Ġ6":2278,"ĠÃ¼":2279,"standen":2280,"ĠSan":2281,"gebracht":2282,"ĠBest":2283,"ĠBrÃ¼cke":2284,"Ġzuf":2285,"Ġvers":2286,"ĠPu":2287,"ĠErfolg":2288,"ĠDieser":2289,"rom":2290,"Ġbeiden":2291,"Ã¼nd":2292,"zeich":2293,"Ġsagten":2294,"Ġeure":2295,"ĠMike":2296,"ĠWaffen":2297,"ĠAuto":2298,"Ġtreffen":2299,"Ġfalsch":2300,"hÃ¶rt":2301,"ĠSal":2302,"ĠDrink":2303,"Ġbem":2304,"ĠMorgan":2305,"ĠvÃ¶llig":2306,"ĠEhren":2307,"ĠBuch":2308,"ĠFrÃ¼":2309,"ĠFot":2310,"ĠPr":2311,"raut":2312,"Ã¤ngen":2313,"leid":2314,"ĠArme":2315,"eilung":2316,"Ã¼nft":2317,"mals":2318,"Ġjede":2319,"stellung":2320,"Ã¤uft":2321,"Ġlangsam":2322,"ĠRita":2323,"Ġbedeutet":2324,"ĠFuÃŁ":2325,"mÃ¶glich":2326,"ĠAlex":2327,"go":2328,"ras":2329,"ritt":2330,"Ġneben":2331,"Ã¤hren":2332,"ĠGleich":2333,"ĠNase":2334,"ĠLasst":2335,"ĠaÃīÃī":2336,"Ġdenen":2337,"urs":2338,"Ãīs":2339,"roh":2340,"ison":2341,"ilf":2342,"orty":2343,"weisen":2344,"Ġlieb":2345,"Ġstellen":2346,"ĠChampagner":2347,"ationen":2348,"ĠFlugzeug":2349,"schied":2350,"Ġversucht":2351,"ĠbÃ¶se":2352,"akt":2353,"mord":2354,"rochen":2355,"zer":2356,"Ġ9":2357,"chter":2358,"Ġhol":2359,"ĠMehr":2360,"Ġzehn":2361,"ĠSchnell":2362,"ramm":2363,"erne":2364,"Ġpasst":2365,"ĠZeitung":2366,"ĠGeheim":2367,"ĠGefÃ¼":2368,"ĠAntwort":2369,"ĠTages":2370,"ĠGlauben":2371,"ĠStraÃŁe":2372,"lung":2373,"pan":2374,"uh":2375,"Ġem":2376,"Ġne":2377,"gew":2378,"eige":2379,"ĠWagen":2380,"ĠDeine":2381,"ĠEv":2382,"ĠHund":2383,"Ġfol":2384,"Ġlau":2385,"Ġlaufen":2386,"dent":2387,"denken":2388,"red":2389,"ĠSchuld":2390,"ille":2391,"egt":2392,"ring":2393,"ĠÃ¼berall":2394,"haft":2395,"Ġschlimm":2396,"ĠfÃ¼hl":2397,"Ġziemlich":2398,"Ã¤hrt":2399,"ĠReise":2400,"ĠEure":2401,"ĠLondon":2402,"ift":2403,"pe":2404,"sichtig":2405,"ĠSeine":2406,"ĠDienst":2407,"orro":2408,"ĠTagen":2409,"Ġtrotz":2410,"legt":2411,"Ġbeste":2412,"Ġrum":2413,"ffel":2414,"ĠHab":2415,"how":2416,"ĠIrgend":2417,"ĠMarlowe":2418,"fr":2419,"Ġel":2420,"ens":2421,"ĠSissi":2422,"gekommen":2423,"ĠWald":2424,"tete":2425,"ĠMil":2426,"ĠHÃ¤t":2427,"Ġgebracht":2428,"ĠBab":2429,"ĠKerl":2430,"Ġlasse":2431,"ume":2432,"ĠZorro":2433,"Ġbed":2434,"ĠOK":2435,"Ġihrer":2436,"isse":2437,"ĠÃĮad":2438,"reichen":2439,"ĠBleiben":2440,"Ġerwartet":2441,"ĠToni":2442,"form":2443,"ole":2444,"sh":2445,"ieten":2446,"Ġzeigen":2447,"itter":2448,"ĠBibliothek":2449,"ĠKorty":2450,"ĠRÃ¼ck":2451,"amb":2452,"Ã¶rper":2453,"Ġbesonder":2454,"ienen":2455,"ĠRuf":2456,"ĠStelle":2457,"ĠSteve":2458,"ĠGottes":2459,"ĠMÃ¶chten":2460,"ĠhÃ¶rte":2461,"klÃ¤ren":2462,"ĠCharlie":2463,"bald":2464,"ips":2465,"pro":2466,"pft":2467,"ĠnÃ¶tig":2468,"ĠhÃ¶rt":2469,"ĠDort":2470,"ichtet":2471,"ĠMut":2472,"ĠGibt":2473,"Ġschreiben":2474,"urg":2475,"ittel":2476,"Ġvorge":2477,"Ã¤tze":2478,"ĠpersÃ¶n":2479,"Ġgutes":2480,"ĠSpinn":2481,"ruppe":2482,"ĠRev":2483,"ĠLieb":2484,"ĠNachricht":2485,"Ġbringe":2486,"ĠChef":2487,"kunft":2488,"ov":2489,"zlich":2490,"ani":2491,"angt":2492,"ĠWetter":2493,"ormal":2494,"ĠBau":2495,"ĠKon":2496,"ĠPil":2497,"ĠUnsinn":2498,"alle":2499,"reifen":2500,"iker":2501,"eilt":2502,"itzt":2503,"Ġeigenen":2504,"schieden":2505,"Ġzwischen":2506,"ĠBrief":2507,"ĠJanet":2508,"Ġverliebt":2509,"ĠLindberg":2510,"ĠDollar":2511,"ĠAndre":2512,"Ã¤hrend":2513,"AR":2514,"ohlen":2515,"stehen":2516,"ĠhÃ¶":2517,"ĠDing":2518,"irl":2519,"Ġbauen":2520,"ĠMig":2521,"ĠMag":2522,"Ġvier":2523,"Ã¤hn":2524,"genommen":2525,"ĠBin":2526,"ĠBra":2527,"ĠNot":2528,"ĠKosa":2529,"ĠFrei":2530,"schte":2531,"eher":2532,"Ġerlau":2533,"Ġerinnern":2534,"ĠTre":2535,"ĠPla":2536,"Ġwartet":2537,"ĠErde":2538,"ĠfÃ¼rchte":2539,"ktiv":2540,"ika":2541,"laden":2542,"ĠAriane":2543,"Ġkleinen":2544,"ĠSchlÃ¼ss":2545,"Ġerfahren":2546,"ĠSybiÃī":2547,"ĠdrÃ¼ben":2548,"ĠLindbergh":2549,"dig":2550,"rig":2551,"ragt":2552,"ina":2553,"stag":2554,"ĠImmer":2555,"ĠHu":2556,"ita":2557,"emand":2558,"ĠErst":2559,"ĠDiego":2560,"weis":2561,"ado":2562,"Ġdeshalb":2563,"Ġkennt":2564,"ammt":2565,"ĠChance":2566,"ĠJean":2567,"ĠJeder":2568,"web":2569,"ĠPferde":2570,"ĠKampf":2571,"ĠBaron":2572,"Ġdauert":2573,"ĠSpinnweb":2574,"ki":2575,"port":2576,"vat":2577,"ies":2578,"ĠSetz":2579,"ĠEis":2580,"Ġung":2581,"ĠFlie":2582,"Ġert":2583,"liches":2584,"Ġtust":2585,"raf":2586,"chtbar":2587,"Ġstill":2588,"Ġunserem":2589,"antwort":2590,"uldige":2591,"ĠSeien":2592,"ahnsinn":2593,"ĠEltern":2594,"ĠWelche":2595,"athy":2596,"ĠZeug":2597,"ĠThom":2598,"ĠGeorges":2599,"AC":2600,"frau":2601,"uel":2602,"uck":2603,"zogen":2604,"enden":2605,"ere":2606,"ition":2607,"ĠNÃ¤":2608,"schÃ¶n":2609,"ĠRad":2610,"Ġtoll":2611,"ĠdaÃŁ":2612,"ĠVerschw":2613,"ĠAnwalt":2614,"Ã¤ndern":2615,"Ġliegen":2616,"ĠwÃ¼rdest":2617,"verstÃ¤nd":2618,"ĠAllison":2619,"ĠBesch":2620,"fallen":2621,"mittag":2622,"Ione":2623,"mit":2624,"setzen":2625,"ieht":2626,"stern":2627,"Ġworden":2628,"Ġmel":2629,"get":2630,"ĠDamen":2631,"Ġkm":2632,"ĠGel":2633,"ĠFei":2634,"ehlt":2635,"ĠschieÃŁen":2636,"Ġverha":2637,"ĠSchiff":2638,"Ġto":2639,"ĠOhne":2640,"ĠSta":2641,"ĠEins":2642,"logen":2643,"ĠheiÃŁen":2644,"ĠFÃ¼rsten":2645,"ĠGefÃ¤ng":2646,"uldigung":2647,"Ġschneller":2648,"ĠfÃ¼hren":2649,"falls":2650,"iday":2651,"ĠCoIone":2652,"ĠGrÃ¼ÃŁ":2653,"ĠFeind":2654,"ĠHolliday":2655,"ĠEtwas":2656,"ĠPerson":2657,"ĠTheater":2658,"ĠSoldaten":2659,"ĠCoIoneI":2660,"ice":2661,"ude":2662,"well":2663,"ĠÃ¶ff":2664,"erkt":2665,"Ġdan":2666,"Ġsingen":2667,"ĠShow":2668,"ĠnÃ¤":2669,"eile":2670,"ĠWegen":2671,"aren":2672,"ĠMc":2673,"ĠGast":2674,"ĠKell":2675,"Ġerinner":2676,"emann":2677,"ĠTom":2678,"ĠTisch":2679,"Ġverste":2680,"ĠVin":2681,"ĠRest":2682,"Ġaufre":2683,"Ġtragen":2684,"ĠZur":2685,"Ġgehst":2686,"ĠChr":2687,"ĠStu":2688,"ĠStÃ¼ck":2689,"Ġmeines":2690,"Ġdirekt":2691,"alls":2692,"ĠHerzen":2693,"ĠÃ¼berras":2694,"Ġstatt":2695,"Ġspricht":2696,"ĠHabt":2697,"ĠgewÃ¶":2698,"Ġgeschrieben":2699,"ĠJohn":2700,"artig":2701,"sucht":2702,"Ġhole":2703,"ĠUnsere":2704,"ĠOffiziere":2705,"ĠGefÃ¤ngnis":2706,"nern":2707,"ron":2708,"rasch":2709,"ssten":2710,"Ġch":2711,"ĠsÃ¼":2712,"ans":2713,"ĠWhi":2714,"ausen":2715,"are":2716,"ĠMund":2717,"Ġvie":2718,"ĠEi":2719,"ĠAd":2720,"ĠBern":2721,"ĠKut":2722,"ĠFor":2723,"ĠfÃ¤llt":2724,"Ġfrag":2725,"ĠerklÃ¤ren":2726,"rech":2727,"ĠTanz":2728,"ĠPips":2729,"Ġjunge":2730,"ĠtrÃ¤":2731,"Ġper":2732,"ĠWozu":2733,"Ġmanchmal":2734,"Ġgesp":2735,"Ġ100":2736,"ings":2737,"ĠLebens":2738,"ĠStell":2739,"ĠGefangen":2740,"ĠAngeÃīe":2741,"Ġgeboren":2742,"ĠGeburt":2743,"ĠProbleme":2744,"ĠWorte":2745,"ĠBÃ¼ffel":2746,"ĠnÃ¤chsten":2747,"Ġanfangen":2748,"ĠwiÃīÃī":2749,"ĠBaby":2750,"ĠÃĮadchen":2751,"ĠMiguel":2752,"ĠWhite":2753,"MM":2754,"buch":2755,"holen":2756,"ĠDem":2757,"ĠEMM":2758,"ĠAhnung":2759,"ity":2760,"ĠKap":2761,"Ġzuerst":2762,"ĠJu":2763,"Ġla":2764,"Ġlesen":2765,"ĠSchn":2766,"Ġtief":2767,"amals":2768,"Ġwieso":2769,"Ġmeinst":2770,"Ã¤ngst":2771,"ila":2772,"ĠWohnung":2773,"Ġgesund":2774,"Ġliebt":2775,"Ġvielen":2776,"Ġdarum":2777,"ĠLieber":2778,"Ġheim":2779,"ahlt":2780,"Ã¼tte":2781,"ĠSchluss":2782,"Ġneuen":2783,"ĠBlumen":2784,"hof":2785,"ĠÃľberrasch":2786,"ARAC":2787,"ĠEMMARAC":2788,"Ġmoch":2789,"ller":2790,"Ã¤del":2791,"itsch":2792,"ĠBÃ¶":2793,"ĠLau":2794,"Ġaufs":2795,"Ġgehabt":2796,"Ġdahin":2797,"Ġallem":2798,"Ġok":2799,"Ġalter":2800,"ĠAng":2801,"ĠkÃ¶nnt":2802,"laub":2803,"Ġherr":2804,"ĠSpan":2805,"rufen":2806,"rift":2807,"ÃīÃīe":2808,"dient":2809,"Ġwelche":2810,"Ġnahm":2811,"ĠSonst":2812,"hÃ¶":2813,"hil":2814,"ok":2815,"sy":2816,"uf":2817,"ĠSein":2818,"ĠAk":2819,"Ġkaufen":2820,"ĠGirl":2821,"ĠBu":2822,"ĠBel":2823,"ĠBom":2824,"Ġfand":2825,"Ġfahr":2826,"Ġlust":2827,"sse":2828,"Ġernst":2829,"Ġverab":2830,"leben":2831,"roffen":2832,"isa":2833,"Ġalleine":2834,"ĠVerw":2835,"Ġsollst":2836,"ĠÃģ":2837,"ĠÃĸ":2838,"sprechen":2839,"ppt":2840,"Ġglaubt":2841,"ĠProf":2842,"ĠGrisch":2843,"schlag":2844,"ĠKÃ¶nnten":2845,"ĠHochzeit":2846,"ĠRitter":2847,"ĠGedanken":2848,"ĠTee":2849,"ĠAmerikan":2850,"Ġtrotzdem":2851,"erken":2852,"inken":2853,"iesen":2854,"sto":2855,"ĠSam":2856,"Ġhart":2857,"ĠEar":2858,"ĠApp":2859,"Ġhalt":2860,"ĠHol":2861,"ĠJenny":2862,"ĠLeu":2863,"ĠLou":2864,"Ġschm":2865,"Ġdenkt":2866,"ĠTu":2867,"ĠVerh":2868,"ĠVerlo":2869,"ĠAnf":2870,"Ġspiel":2871,"ĠWohl":2872,"Ġwohin":2873,"ĠmÃ¼de":2874,"ĠBed":2875,"Ġbrauchst":2876,"ĠhÃ¤ttest":2877,"Ġgemein":2878,"indest":2879,"ĠAngele":2880,"ĠEntschuldigung":2881,"ĠVertrag":2882,"Ġgegangen":2883,"ĠGirls":2884,"bahn":2885,"gie":2886,"pa":2887,"ches":2888,"Ġnormal":2889,"ĠhÃ¤ngen":2890,"ĠWh":2891,"ĠWien":2892,"Ã¼g":2893,"itÃ¡":2894,"ĠKir":2895,"ĠKim":2896,"schn":2897,"Ġfroh":2898,"ĠJung":2899,"ĠlÃ¤nger":2900,"ĠlÃ¤uft":2901,"Ġschen":2902,"ĠTeu":2903,"ĠVier":2904,"Ġtanzen":2905,"Ġwert":2906,"Ġreich":2907,"Ġ18":2908,"ĠmÃ¼sste":2909,"Ġentf":2910,"Ġsolltest":2911,"ĠHilf":2912,"Ġreizen":2913,"ĠMillionen":2914,"ĠrÃ¼ber":2915,"ĠMilch":2916,"ĠKosaken":2917,"itÃ¡n":2918,"uchen":2919,"vila":2920,"wig":2921,"zin":2922,"iegel":2923,"Ġnimm":2924,"geb":2925,"Ã¼gel":2926,"ĠSiehst":2927,"ĠMel":2928,"ĠEur":2929,"Ġzer":2930,"ore":2931,"Ã¶d":2932,"ĠJemand":2933,"ĠLang":2934,"Ġat":2935,"tert":2936,"ĠTal":2937,"ĠTsch":2938,"ĠverÃī":2939,"cker":2940,"ĠRing":2941,"ĠJack":2942,"Ãīt":2943,"Ãīau":2944,"Ġtrau":2945,"ĠOl":2946,"ĠfÃ¼rs":2947,"Ġaller":2948,"ringt":2949,"Ġreg":2950,"Ġ14":2951,"ĠMarsh":2952,"Ġhalte":2953,"ĠBrenn":2954,"Ġsolche":2955,"ĠkÃ¼mmer":2956,"ĠCapitÃ¡n":2957,"ĠWÃ¼rde":2958,"ĠÃģvila":2959,"aden":2960,"sache":2961,"Ġwem":2962,"ĠSelen":2963,"Ġnimmt":2964,"ĠDrei":2965,"irk":2966,"Ġeinsam":2967,"ĠEd":2968,"Ġzerst":2969,"Ã¶tet":2970,"ĠFol":2971,"Ġerschie":2972,"Ġerreichen":2973,"reche":2974,"ĠPunkt":2975,"ĠZe":2976,"rad":2977,"ĠEiner":2978,"ĠVerd":2979,"ĠVersuch":2980,"Ã¤ne":2981,"ktion":2982,"Ġstolz":2983,"ĠHabe":2984,"iment":2985,"ĠgefÃ¤hr":2986,"ĠGren":2987,"ive":2988,"Ġbereits":2989,"ĠHauptmann":2990,"Ġfurchtbar":2991,"ĠGlas":2992,"ĠRichter":2993,"ĠThomas":2994,"ĠSelena":2995,"fin":2996,"prÃ¼":2997,"ven":2998,"wischen":2999,"ene":3000,"iet":3001,"une":3002,"ĠIke":3003,"ĠHm":3004,"ĠunmÃ¶glich":3005,"itÃ¤t":3006,"Ġlernen":3007,"elb":3008,"ĠsoÃīÃī":3009,"Ġant":3010,"ump":3011,"ĠSchul":3012,"ĠDumm":3013,"rohe":3014,"ĠVerrÃ¤":3015,"ĠAnk":3016,"ĠAuft":3017,"rinken":3018,"Ġvorher":3019,"Ġabzu":3020,"innt":3021,"ĠFreude":3022,"Ġverlangt":3023,"ĠMeinung":3024,"klag":3025,"ĠLuisa":3026,"Ġfreu":3027,"prochen":3028,"ĠGewehr":3029,"Ġbezahlen":3030,"ĠkÃ¼mmern":3031,"Ġschicken":3032,"ĠDeshalb":3033,"ĠAuÃŁerdem":3034,"meister":3035,"Ġzufrieden":3036,"ĠChrist":3037,"ail":3038,"piel":3039,"rt":3040,"ui":3041,"Ġro":3042,"Ġqu":3043,"ĠÃ¼b":3044,"ĠMist":3045,"ĠEhe":3046,"ĠHÃ¶rt":3047,"ĠBeg":3048,"ĠKla":3049,"ĠKino":3050,"elbe":3051,"ĠPe":3052,"ÃŁlich":3053,"indung":3054,"ĠRaum":3055,"ĠStock":3056,"ĠStimme":3057,"achts":3058,"Ã¤tz":3059,"icks":3060,"icken":3061,"ĠRegen":3062,"Ġgewusst":3063,"ĠWeiÃŁ":3064,"ĠgroÃŁer":3065,"ĠLeon":3066,"flug":3067,"Ġvoller":3068,"ĠWahrscheinlich":3069,"ĠKomp":3070,"Ġbetrunken":3071,"ĠBleib":3072,"Ġeinzige":3073,"ĠwÃ¼nschte":3074,"gefÃ¤hr":3075,"ĠFerns":3076,"ĠGeschworen":3077,"Ġempf":3078,"ĠAngriff":3079,"ĠAnfang":3080,"bte":3081,"ret":3082,"reit":3083,"wald":3084,"Ġdamals":3085,"iche":3086,"Ġsa":3087,"ĠSonn":3088,"ĠIdi":3089,"arte":3090,"ĠEid":3091,"ĠAza":3092,"Ġkost":3093,"ĠNÃ¤ch":3094,"ĠKÃ¶rper":3095,"alen":3096,"Ġverge":3097,"ĠSchne":3098,"ĠErinner":3099,"ĠZÃ¼r":3100,"olut":3101,"Ġliebst":3102,"Ġnieder":3103,"Ġversteh":3104,"ĠSee":3105,"Ġgere":3106,"ĠgetÃ¶tet":3107,"ĠLuc":3108,"ĠNachmittag":3109,"ĠBesser":3110,"ĠAngeklag":3111,"kommt":3112,"ĠSicherheit":3113,"ĠZeugen":3114,"ĠOffizier":3115,"Ġstark":3116,"ĠBilly":3117,"Ġbekommt":3118,"ĠSekunden":3119,"ĠvernÃ¼nft":3120,"Ġdanach":3121,"Ġlustig":3122,"cia":3123,"sa":3124,"zess":3125,"Ġweh":3126,"anten":3127,"Ġmei":3128,"Ġmerk":3129,"ĠDad":3130,"Ã¼ge":3131,"esp":3132,"ire":3133,"ito":3134,"ĠBild":3135,"ĠNich":3136,"ĠNatur":3137,"ĠFerr":3138,"Ġfindet":3139,"ĠJun":3140,"Ġschrei":3141,"Ġdenkst":3142,"ĠViel":3143,"ĠSchrei":3144,"ĠOt":3145,"ise":3146,"Ġstand":3147,"rieb":3148,"ĠInform":3149,"Ã¤rm":3150,"gerufen":3151,"utenant":3152,"ĠLiebes":3153,"ĠLieutenant":3154,"Ġjedem":3155,"Ġverletzt":3156,"ĠVorwÃ¤rts":3157,"Ġwolltest":3158,"Ġgetrunken":3159,"ĠMÃ¤nnern":3160,"ĠMajor":3161,"Ġweniger":3162,"ĠgegenÃ¼ber":3163,"pres":3164,"Ġbehalten":3165,"ĠVole":3166,"Ġehrlich":3167,"ĠLeider":3168,"ĠkÃ¤mpfen":3169,"fahrt":3170,"ĠEmpf":3171,"Ġschrecklich":3172,"ĠTeufel":3173,"ĠAnklage":3174,"ĠLeonard":3175,"ball":3176,"gr":3177,"heiten":3178,"jekt":3179,"tra":3180,"ĠÃ¶":3181,"Ġeher":3182,"Ġsitzt":3183,"ĠSol":3184,"ĠSieht":3185,"ĠMo":3186,"ĠMeter":3187,"ĠkÃī":3188,"ĠGold":3189,"Ġunver":3190,"orgt":3191,"ĠBeh":3192,"ĠKleid":3193,"ĠPrin":3194,"ĠgehÃ¶ren":3195,"Ġwerdet":3196,"ĠDafÃ¼r":3197,"ĠAlarm":3198,"auspiel":3199,"Ġhinten":3200,"imp":3201,"Ġgefragt":3202,"Ġversteht":3203,"Ġgescha":3204,"Ġkennst":3205,"Ġbleibe":3206,"ĠKlein":3207,"ĠDarum":3208,"Ġpassieren":3209,"Ġfreund":3210,"ĠDirektor":3211,"ĠwÃ¼sste":3212,"ĠMotor":3213,"gabe":3214,"ĠGefÃ¼hl":3215,"ĠÃľberraschung":3216,"ĠFerrante":3217,"lagen":3218,"prÃ¤":3219,"ton":3220,"uer":3221,"uff":3222,"Ġ[":3223,"ins":3224,"ieÃŁ":3225,"aschen":3226,"ana":3227,"ĠAha":3228,"Ġkamen":3229,"Ã¤cht":3230,"ĠHut":3231,"ĠHamb":3232,"Ġzahlen":3233,"ĠKun":3234,"Ġfalls":3235,"ĠTrau":3236,"ĠTeil":3237,"ĠTim":3238,"Ġversch":3239,"ĠUri":3240,"ĠSchm":3241,"ĠCity":3242,"ĠStein":3243,"ĠVerl":3244,"ĠVergessen":3245,"Ġumge":3246,"ĠÃ¼berzeu":3247,"ĠWerk":3248,"ĠReden":3249,"ienten":3250,"halt":3251,"arren":3252,"ĠschÃ¶ne":3253,"ĠMantel":3254,"ĠRuss":3255,"suchen":3256,"Ġrufen":3257,"ĠBerg":3258,"ĠfÃ¼hle":3259,"ĠFalls":3260,"Ġirgendwo":3261,"ĠExze":3262,"ĠPost":3263,"Ġredest":3264,"ĠPaul":3265,"ĠDieses":3266,"ĠAussage":3267,"zeichnet":3268,"ĠArmee":3269,"verstÃ¤ndlich":3270,"ĠnÃ¤her":3271,"ĠTschÃ¼ss":3272,"ĠOtto":3273,"..":3274,"eck":3275,"fach":3276,"fern":3277,"ior":3278,"mus":3279,"our":3280,"res":3281,"sb":3282,"yn":3283,"zent":3284,"steigen":3285,"ĠSinn":3286,"Ġnennen":3287,"ĠEh":3288,"ĠEhre":3289,"ĠHung":3290,"ĠNord":3291,"schelb":3292,"Ġfa":3293,"Ġverdient":3294,"igkeiten":3295,"ĠSchauspiel":3296,"Ġaufzu":3297,"Ġtau":3298,"ĠUngar":3299,"etzte":3300,"rock":3301,"ĠAndr":3302,"Ġvorsichtig":3303,"Ġsto":3304,"Ġbesuchen":3305,"ĠRede":3306,"ĠFlasche":3307,"haber":3308,"endet":3309,"ward":3310,"ĠBesonder":3311,"fÃ¼hrer":3312,"ĠNebel":3313,"Ġfreue":3314,"ĠKannst":3315,"Ġbedeuten":3316,"ĠGraf":3317,"Ġbekannt":3318,"arbeitet":3319,"ĠTatsÃ¤chlich":3320,"nahme":3321,"ĠÃ¼br":3322,"ĠVerrÃ¤ter":3323,"espekt":3324,"ĠHunger":3325,"nÃ¼gen":3326,"Ġei":3327,"ĠÃ¤ndern":3328,"unt":3329,"ĠhÃ¶re":3330,"ĠWand":3331,"Ã¼te":3332,"ĠMÃ¤del":3333,"ĠAgen":3334,"Ã¤ss":3335,"ĠHi":3336,"ĠGina":3337,"ĠBet":3338,"ĠNick":3339,"ĠKal":3340,"ĠFrohe":3341,"ĠlÃ¤ch":3342,"Ġern":3343,"recht":3344,"Ġverfol":3345,"ĠPist":3346,"ĠVi":3347,"utzt":3348,"ĠRa":3349,"Ġbeweisen":3350,"Ġgeheiratet":3351,"ĠWird":3352,"raft":3353,"ĠCab":3354,"Ã¤nden":3355,"ĠÃ¼bert":3356,"Ġwohnt":3357,"Ġgesprochen":3358,"ruf":3359,"rÃ¤ger":3360,"ĠLied":3361,"ĠMeinen":3362,"verstanden":3363,"Ġ30":3364,"Ġarbeite":3365,"Ġarbeitet":3366,"llenz":3367,"Ġbring":3368,"Ġsuche":3369,"ĠMÃ¶glich":3370,"Ġ50":3371,"ĠnÃ¤chste":3372,"ĠVergiss":3373,"ĠSybil":3374,"ĠParty":3375,"Ġrichtigen":3376,"ĠFoto":3377,"Ġbesonders":3378,"ĠKutsche":3379,"presso":3380,"ĠExzellenz":3381,"Ken":3382,"erz":3383,"Ã¼ste":3384,"irn":3385,"ars":3386,"ĠAcht":3387,"Ġgez":3388,"Ġzwar":3389,"achtet":3390,"Ġfrage":3391,"Ġlanden":3392,"reut":3393,"ĠTrink":3394,"ĠSchmer":3395,"Ġtr":3396,"ĠErnst":3397,"ross":3398,"Ġspielt":3399,"ĠArbei":3400,"ĠGeschen":3401,"gelt":3402,"Ġgewar":3403,"Ġstelle":3404,"Ġsteckt":3405,"zeichen":3406,"rifft":3407,"ĠManchmal":3408,"ĠProst":3409,"ĠGrig":3410,"Ġschwar":3411,"ĠPfarr":3412,"ĠMenge":3413,"Ġleer":3414,"ĠfÃ¼hrt":3415,"ĠBoden":3416,"ĠBobo":3417,"Ġgebrau":3418,"platz":3419,"werk":3420,"Ã¶tzlich":3421,"ĠVerzeihen":3422,"Ġerwarten":3423,"ĠHochwÃ¼r":3424,"ĠWunderbar":3425,"Ġkleiner":3426,"ĠKuschelb":3427,"Ġerled":3428,"Ġrichtige":3429,"ĠFinger":3430,"ĠaÃīÃīes":3431,"Ġfolgen":3432,"Ġperfe":3433,"Ġfahre":3434,"ĠProfess":3435,"ĠEarp":3436,"Kenzie":3437,"ĠHochwÃ¼rden":3438,"ĠKuschelbÃ¤rchen":3439,"aun":3440,"dingt":3441,"finden":3442,"gal":3443,"kam":3444,"licht":3445,"lang":3446,"si":3447,"tur":3448,"Ġann":3449,"iegen":3450,"Ġwor":3451,"ĠwÃ¤hrend":3452,"ĠSimp":3453,"Ġnerv":3454,"unsch":3455,"Ġhandelt":3456,"geg":3457,"llo":3458,"ĠMet":3459,"ĠMÃ¶rder":3460,"ĠGÃ¤":3461,"ĠBring":3462,"bern":3463,"bert":3464,"ehle":3465,"Ġlo":3466,"ehrt":3467,"ĠEinz":3468,"Ġretten":3469,"ĠHerein":3470,"Ġpr":3471,"ĠGegend":3472,"Ġsteigen":3473,"rÃ¼cken":3474,"iko":3475,"ĠArm":3476,"spruch":3477,"Ġhinein":3478,"ĠHoheit":3479,"ĠChic":3480,"Ġrufe":3481,"ĠPlan":3482,"Ã¤llig":3483,"Ġlebe":3484,"Ġwahrscheinlich":3485,"ĠBesuch":3486,"Ġversuche":3487,"ĠwunderschÃ¶n":3488,"Ġsolange":3489,"Ġverkaufen":3490,"Ġversprochen":3491,"andeln":3492,"reuz":3493,"jew":3494,"Ġmelden":3495,"ĠVince":3496,"ĠLeuten":3497,"Ġentfernt":3498,"Ġkostet":3499,"Ġgeschafft":3500,"ĠSimpson":3501,"aI":3502,"av":3503,"ftet":3504,"gung":3505,"setzt":3506,"erikan":3507,"stes":3508,"Ġhil":3509,"Ã¼hrt":3510,"llt":3511,"ĠEmm":3512,"ĠEgal":3513,"ĠBÃ¤":3514,"ĠBier":3515,"ĠKat":3516,"Ġgl":3517,"schirm":3518,"Ġfehlt":3519,"ĠLi":3520,"Ġerre":3521,"Ġsobald":3522,"ĠPad":3523,"ĠVie":3524,"Ġjungen":3525,"ĠUng":3526,"amt":3527,"ĠZus":3528,"ando":3529,"ĠwoÃīÃī":3530,"liegen":3531,"ĠmÃ¼sst":3532,"ĠheiÃŁe":3533,"Ġentde":3534,"ĠJoe":3535,"Ġselten":3536,"izin":3537,"Ġgetroffen":3538,"ĠDenis":3539,"ĠFreundin":3540,"Ġeigene":3541,"ĠEntschuldige":3542,"Ġbeglei":3543,"ĠbeschÃ¤ft":3544,"ĠLaden":3545,"ĠBÃ¼rger":3546,"Ġgekauft":3547,"wegs":3548,"mantel":3549,"ĠSchule":3550,"Ġjunger":3551,"irma":3552,"ĠGegenteil":3553,"ĠSchlÃ¼ssel":3554,"by":3555,"krie":3556,"manden":3557,"mutter":3558,"ritte":3559,"ves":3560,"ĠSollen":3561,"Ġhasse":3562,"ĠWitz":3563,"Ã¼chtig":3564,"ĠMor":3565,"ĠEver":3566,"Ġkalt":3567,"ĠGn":3568,"ĠGrÃ¤":3569,"Ġzuge":3570,"ĠFer":3571,"ĠFar":3572,"ĠTerr":3573,"Ġverz":3574,"Ġverlo":3575,"ĠPort":3576,"Ġsieh":3577,"Ġanrufen":3578,"ĠSchade":3579,"Ġtu":3580,"ley":3581,"Ġgeheim":3582,"Ġdasselbe":3583,"ffer":3584,"Ġspaz":3585,"ĠSow":3586,"zubringen":3587,"lieben":3588,"heriff":3589,"Ġglaubst":3590,"ĠAbendessen":3591,"ĠMonate":3592,"ĠPfund":3593,"Ã¤hlt":3594,"ĠBoss":3595,"Ġkonnten":3596,"Ġbefehl":3597,"Ġdarfst":3598,"ĠDreh":3599,"Ġdrauf":3600,"ĠRichtung":3601,"worten":3602,"ĠTax":3603,"ĠBrÃ¼der":3604,"mordet":3605,"Ġerlaubt":3606,"Ġerinnere":3607,"sych":3608,"ĠLouis":3609,"ĠKirche":3610,"Ġfreuen":3611,"ĠAzae":3612,"Ġmeisten":3613,"brechen":3614,"itel":3615,"setz":3616,"chs":3617,"ensch":3618,"erlich":3619,"inen":3620,"ĠSeht":3621,"aner":3622,"ĠDorf":3623,"iria":3624,"Ġbra":3625,"Ġkap":3626,"Ã¤ger":3627,"ĠHar":3628,"Ġgebrochen":3629,"ĠGas":3630,"Ġunsch":3631,"itu":3632,"ĠNat":3633,"ĠKurs":3634,"tend":3635,"ĠFrieden":3636,"ĠPreis":3637,"Ġangerufen":3638,"ennst":3639,"Ġthe":3640,"eitung":3641,"ĠCon":3642,"ĠstÃ¤nd":3643,"Ġstud":3644,"ĠDazu":3645,"ĠDave":3646,"igeun":3647,"Ġganzes":3648,"ĠmÃ¶gen":3649,"ĠmÃ¶chten":3650,"Ġeuer":3651,"Ġ21":3652,"Ġ25":3653,"ĠFranc":3654,"Ġamerikan":3655,"Ġgeschlafen":3656,"rivat":3657,"ĠMark":3658,"ĠSchlag":3659,"ĠGefallen":3660,"ĠBeruf":3661,"Ġecht":3662,"Ġirgendw":3663,"ĠMÃ¶chte":3664,"ĠKeiner":3665,"Ġgelesen":3666,"ĠMami":3667,"ĠHinter":3668,"ĠHolly":3669,"Ġerschossen":3670,"Ġunbedingt":3671,"ĠZigaretten":3672,"ĠpersÃ¶nlich":3673,"ĠÃ¶ffnen":3674,"Ġmochte":3675,"ĠAmerikaner":3676,"ĠgefÃ¤hrlich":3677,"ĠFernseh":3678,"ĠZÃ¼rich":3679,"ĠCabiria":3680,"ĠGrigori":3681,"ĠPfarrer":3682,"ĠZusammen":3683,"gern":3684,"jet":3685,"min":3686,"uber":3687,"vater":3688,"zahl":3689,"Ġdo":3690,"ĠSn":3691,"Ġmachte":3692,"ĠWind":3693,"ĠWÃ¤re":3694,"ĠWahl":3695,"ĠWitze":3696,"eshalb":3697,"ĠMatte":3698,"ĠEben":3699,"ĠEigen":3700,"Ã¤ck":3701,"Ġuner":3702,"orben":3703,"ĠBon":3704,"ĠBat":3705,"Ã¶pf":3706,"Ġgib":3707,"schloss":3708,"ĠLauf":3709,"Ġerkl":3710,"Ġermordet":3711,"ĠTun":3712,"ĠTrinken":3713,"ĠPrÃ¤":3714,"ign":3715,"Ġsieben":3716,"ĠRaus":3717,"Ġta":3718,"Ġtat":3719,"euert":3720,"eits":3721,"lebt":3722,"ĠZigeun":3723,"ĠEinfach":3724,"Ġvorstellen":3725,"reiten":3726,"Ġwollt":3727,"ĠIndi":3728,"Ã¤ren":3729,"ney":3730,"lieÃŁen":3731,"Ġdeines":3732,"ĠVorstellung":3733,"ĠHoffentlich":3734,"Ġruft":3735,"Ġneues":3736,"ĠBericht":3737,"way":3738,"Ġschlimmer":3739,"ĠTops":3740,"Ġgenauso":3741,"richten":3742,"ĠUnterschied":3743,"ĠZweifel":3744,"ĠKÃ¶nigin":3745,"Ġwenigstens":3746,"ĠwÃ¼nschen":3747,"ĠZieh":3748,"ĠKaiserin":3749,"ĠKarte":3750,"ĠGemahl":3751,"ĠKontakt":3752,"ĠgrÃ¼n":3753,"ĠgrÃ¶ÃŁer":3754,"ĠZurÃ¼ck":3755,"Ġgemeinsam":3756,"ĠProfessor":3757,"50":3758,"ct":3759,"ek":3760,"fst":3761,"lant":3762,"ose":3763,"pen":3764,"pert":3765,"yr":3766,"yas":3767,"ĠX":3768,"ende":3769,"ĠSalle":3770,"Ġnachts":3771,"eitet":3772,"ĠWade":3773,"ĠWren":3774,"ĠDet":3775,"Ġblau":3776,"ario":3777,"ĠGern":3778,"ĠGust":3779,"orte":3780,"ĠBall":3781,"ĠNori":3782,"ĠKennen":3783,"ĠFest":3784,"scher":3785,"ĠLes":3786,"ehaus":3787,"Ġschul":3788,"ĠTausen":3789,"Ġanb":3790,"ama":3791,"ehren":3792,"ros":3793,"Ġrie":3794,"Ġreiten":3795,"ĠInsp":3796,"ĠBeweis":3797,"abel":3798,"ĠFren":3799,"halter":3800,"ĠVorsicht":3801,"ĠMonast":3802,"ĠKleine":3803,"ĠDenk":3804,"Ã¤hlen":3805,"napp":3806,"Ġtrinke":3807,"orman":3808,"iforn":3809,"Ġentscheiden":3810,"aÃīd":3811,"Ã¤lter":3812,"Ġkleines":3813,"ĠVergnÃ¼gen":3814,"ĠMeer":3815,"ĠplÃ¶tzlich":3816,"ĠSaito":3817,"Ġheirate":3818,"ĠKrankenhaus":3819,"ĠBravo":3820,"ĠSpinnwebschloss":3821,"Ġverhaftet":3822,"ĠGefangenen":3823,"ĠKimani":3824,"ĠRingo":3825,"ĠMarshall":3826,"ĠGeschworenen":3827,"ĠJunior":3828,"ĠEmpfang":3829,"ĠHamburg":3830,"ĠEhemann":3831,"ĠAchtung":3832,"ĠSnuff":3833,"ĠTopsy":3834,"ĠNoriyas":3835,"feld":3836,"gibt":3837,"osen":3838,"cho":3839,"Ġdun":3840,"ĠSen":3841,"ĠSand":3842,"Ġnamen":3843,"ĠWil":3844,"ĠMer":3845,"onen":3846,"ĠHarry":3847,"ĠGent":3848,"Ã¶hn":3849,"ĠNorman":3850,"ĠFig":3851,"ĠfÃ¤hrt":3852,"dert":3853,"Ġschn":3854,"Ġschade":3855,"eman":3856,"eleg":3857,"ĠTier":3858,"Ġverraten":3859,"ĠVent":3860,"ago":3861,"ĠErfahr":3862,"Ġmeinte":3863,"ĠVerantwort":3864,"immung":3865,"Ġvorber":3866,"ischt":3867,"Ġniemanden":3868,"ĠBevor":3869,"Ġgeschieht":3870,"Ġgeschlagen":3871,"ĠMonaten":3872,"ĠHoward":3873,"ĠschwÃ¶re":3874,"ĠSchwierig":3875,"ĠGefahr":3876,"ĠJeff":3877,"ĠGere":3878,"ĠschlÃ¤":3879,"Ġewig":3880,"schluss":3881,"fÃ¼hren":3882,"ĠHerzog":3883,"kohol":3884,"ĠKaffeehaus":3885,"Ġ40":3886,"ĠMÃ¼ller":3887,"unktion":3888,"ĠGarcia":3889,"ĠBriefe":3890,"ĠUrsache":3891,"ĠSchweizer":3892,"ĠJulchen":3893,"ĠBestimmt":3894,"ĠFreiheit":3895,"ĠWhitey":3896,"ĠerschieÃŁen":3897,"ĠGrenze":3898,"ĠvernÃ¼nftig":3899,"ĠChicago":3900,"ĠEverett":3901,"ĠFrench":3902,"II":3903,"Ii":3904,"Is":3905,"Put":3906,"fers":3907,"lin":3908,"sf":3909,"tÃ¤u":3910,"uhr":3911,"umm":3912,"vert":3913,"Ġ*":3914,"Ġy":3915,"ieger":3916,"stet":3917,"ĠSitu":3918,"anch":3919,"Ġned":3920,"eigt":3921,"ĠWur":3922,"ĠWachen":3923,"ĠWilf":3924,"ĠWÃ¼ste":3925,"ĠDi":3926,"aufe":3927,"arsch":3928,"ĠEhr":3929,"ĠEind":3930,"ĠEle":3931,"ĠgeÃ¤ndert":3932,"ĠBein":3933,"ĠBade":3934,"ĠBringen":3935,"Ã¶l":3936,"ĠKuss":3937,"ĠKreuz":3938,"ettet":3939,"Ġfin":3940,"ĠLin":3941,"ĠLage":3942,"ĠlÃ¼":3943,"ĠTeleg":3944,"Ġverzei":3945,"ĠPal":3946,"ĠPeter":3947,"ĠPrivat":3948,"ĠVol":3949,"Ġans":3950,"atsch":3951,"ĠRau":3952,"ĠRis":3953,"ĠRolle":3954,"Ġauft":3955,"ĠaufhÃ¶ren":3956,"ĠErzÃ¤hl":3957,"ĠOper":3958,"ĠStatt":3959,"ĠStreich":3960,"ĠStay":3961,"ĠEines":3962,"ĠVerstand":3963,"ĠAuge":3964,"ĠÃ¼bern":3965,"ĠGep":3966,"ĠWofÃ¼r":3967,"ĠHaar":3968,"Ġniemals":3969,"lieb":3970,"ĠBeweg":3971,"Ġgenommen":3972,"Ġklingt":3973,"eldet":3974,"Ġentlassen":3975,"Ġhattest":3976,"ĠMarg":3977,"ĠSchlacht":3978,"wood":3979,"ĠPlÃ¤ne":3980,"Ġfreut":3981,"hause":3982,"quem":3983,"Ġgelernt":3984,"kopf":3985,"ĠClub":3986,"ĠRocky":3987,"ĠRockwell":3988,"Ġkomisch":3989,"ĠBroad":3990,"ĠGeheimnis":3991,"ĠHÃ¤tte":3992,"ĠNÃ¤he":3993,"ĠSpanien":3994,"ĠTalent":3995,"Ġtraurig":3996,"ĠÃ¼bel":3997,"Ġspazieren":3998,"ĠTaxi":3999,"ĠMatteo":4000,"ĠGustav":4001,"ĠSnuffy":4002,"Ġnamens":4003,"ĠWilfrid":4004,"co":4005,"drÃ¼cke":4006,"ker":4007,"off":4008,"ĠÃ¤hn":4009,"Ġse":4010,"Ġsauber":4011,"stimmen":4012,"Ġnot":4013,"ĠWahnsinn":4014,"Ġkla":4015,"ĠHeim":4016,"ĠHalten":4017,"ĠGÃ¼te":4018,"ĠungefÃ¤hr":4019,"ĠBor":4020,"ĠBaum":4021,"Ã¶st":4022,"ĠKer":4023,"ĠFel":4024,"schu":4025,"Ġlaut":4026,"ĠschÃ¤tze":4027,"ĠTurm":4028,"ĠTraum":4029,"ĠTruppe":4030,"ĠverÃ¤ndert":4031,"ĠPan":4032,"bee":4033,"ĠanstÃ¤nd":4034,"ĠRat":4035,"ĠRom":4036,"ĠUnif":4037,"Ġgehol":4038,"ĠCathy":4039,"ĠStreit":4040,"andlung":4041,"ĠVers":4042,"Ġlief":4043,"ĠInter":4044,"Ġabs":4045,"Ġ11":4046,"Ġ13":4047,"ĠAlkohol":4048,"ĠBeste":4049,"ĠRech":4050,"Ġglaub":4051,"ĠFluss":4052,"ĠAufgabe":4053,"Ġbleibst":4054,"Ġunterwegs":4055,"ĠWeiter":4056,"Ã¼tig":4057,"ĠAbschied":4058,"ĠGefÃ¤llt":4059,"Ġwundervoll":4060,"hstÃ¼ck":4061,"ĠSollte":4062,"Ġinteressant":4063,"edizin":4064,"Ġbezahlt":4065,"Ġbenutzen":4066,"ĠTex":4067,"Ġehren":4068,"ĠNeuigkeiten":4069,"geschickt":4070,"ĠwÃ¼tend":4071,"Ġsprach":4072,"ĠHeilige":4073,"ĠgrÃ¶ÃŁ":4074,"ĠHofrat":4075,"ĠPubl":4076,"ĠRÃ¼cken":4077,"ĠPiloten":4078,"ĠAndreas":4079,"ĠViertel":4080,"Ġreizend":4081,"ĠIdiot":4082,"Ġeifers":4083,"Ġgewartet":4084,"ĠGÃ¤ste":4085,"jewitsch":4086,"ĠUnglÃ¼ck":4087,"ĠstÃ¤ndig":4088,"ĠNoriyasu":4089,"daten":4090,"len":4091,"mel":4092,"oss":4093,"passen":4094,"passt":4095,"roll":4096,"zte":4097,"zul":4098,"erweise":4099,"stÃ¼ck":4100,"Ġwicht":4101,"aup":4102,"irgend":4103,"Ġgearbeitet":4104,"Ġzeige":4105,"iter":4106,"ĠBrau":4107,"Ã¶sen":4108,"ĠKil":4109,"ĠFÃ¼nf":4110,"ĠgÃīau":4111,"ĠJim":4112,"ĠlÃ¤ngst":4113,"annon":4114,"ĠerfÃ¼":4115,"Ġsowie":4116,"ĠTru":4117,"ĠPaar":4118,"Ġmitnehmen":4119,"ĠRitz":4120,"ĠSchuldig":4121,"ĠErklÃ¤r":4122,"rafen":4123,"ĠStar":4124,"ĠmuÃŁ":4125,"reise":4126,"Ġstimmen":4127,"undet":4128,"Ġanderer":4129,"ĠÃīhr":4130,"ĠEndlich":4131,"Ġhinaus":4132,"Ã¼nst":4133,"Ġbisher":4134,"Ġselber":4135,"iziert":4136,"ĠMitt":4137,"ĠKate":4138,"ĠAbge":4139,"ahle":4140,"ĠschlÃ¤ft":4141,"Ġirren":4142,"ĠwÃ¤rst":4143,"ĠBeispiel":4144,"reng":4145,"Ġseien":4146,"Ã¤mlich":4147,"ĠBrille":4148,"Ġirgendwie":4149,"Ġschlechte":4150,"Ġlhrer":4151,"ĠGewissen":4152,"ĠPosten":4153,"wÃ¼rdig":4154,"ĠKamer":4155,"ĠNeues":4156,"ĠClant":4157,"Ġbekommst":4158,"ĠDeswegen":4159,"ĠTorres":4160,"ĠSprit":4161,"abteilung":4162,"Ġdauern":4163,"ĠShannon":4164,"kehrt":4165,"ĠschlieÃŁen":4166,"ĠHelm":4167,"ĠMaggie":4168,"ĠÃ¼berrascht":4169,"ĠGrischa":4170,"ĠVerlobung":4171,"ĠSchnee":4172,"ĠNicho":4173,"Ġfair":4174,"ĠNickie":4175,"ĠlÃ¤cherlich":4176,"ĠbeschÃ¤ftigt":4177,"ĠIndianer":4178,"ĠMonastario":4179,"99":4180,"bild":4181,"ca":4182,"cros":4183,"dy":4184,"iver":4185,"kte":4186,"lig":4187,"mittel":4188,"ote":4189,"ry":4190,"Ġweinen":4191,"ĠWoll":4192,"tem":4193,"ĠMei":4194,"ĠBus":4195,"Ġzuvor":4196,"mme":4197,"ĠFa":4198,"ĠFal":4199,"ĠFahren":4200,"ĠLutz":4201,"sser":4202,"Ġschlage":4203,"elz":4204,"ĠTer":4205,"ĠTasche":4206,"Ġang":4207,"utlich":4208,"Ġbequem":4209,"ĠEsel":4210,"ĠDucros":4211,"ĠVerste":4212,"ield":4213,"ĠAnruf":4214,"Ġnachge":4215,"Ġwillen":4216,"Ġkeinem":4217,"ĠDavon":4218,"ĠFrem":4219,"ĠMax":4220,"Ġuntersch":4221,"ĠMonat":4222,"ĠWeile":4223,"ĠMarie":4224,"ĠÃĮann":4225,"ĠAbs":4226,"ĠZustand":4227,"endung":4228,"ĠPlatten":4229,"Ġlebt":4230,"Ġschlug":4231,"ĠUmst":4232,"fÃ¼hrt":4233,"Ġerfol":4234,"ĠKÃ¶nnte":4235,"boten":4236,"Ġletzter":4237,"Ġeingeladen":4238,"Ġfliege":4239,"Ġbehaup":4240,"ĠgroÃŁartig":4241,"ĠKompl":4242,"ĠFrankreich":4243,"ollege":4244,"Ġentschuldigen":4245,"ĠVerstanden":4246,"Ġfalschen":4247,"Ġeng":4248,"Ġsprich":4249,"inks":4250,"Ġneun":4251,"ĠBescheid":4252,"ĠFeigl":4253,"ĠLangsam":4254,"Ġsahen":4255,"ĠLucas":4256,"Ġprima":4257,"ĠSowjet":4258,"ĠFigur":4259,"ĠVerantwortung":4260,"ĠSchwierigkeiten":4261,"ĠGepÃ¤ck":4262,"ĠUniform":4263,"ĠeifersÃ¼chtig":4264,"Ġsowieso":4265,"10":4266,"Afe":4267,"aben":4268,"bier":4269,"fil":4270,"ient":4271,"lad":4272,"ling":4273,"sl":4274,"satz":4275,"uhig":4276,"wesen":4277,"Ġacht":4278,"eri":4279,"ĠSk":4280,"ĠSonnen":4281,"ĠSmit":4282,"ano":4283,"andem":4284,"Ġmensch":4285,"ĠhÃ¤ngt":4286,"Ġhilf":4287,"Ã¼s":4288,"Ã¼glich":4289,"ĠbÃī":4290,"Ġblieb":4291,"ĠMat":4292,"Ġeinigen":4293,"ĠAbst":4294,"ĠAfr":4295,"Ã¤me":4296,"ĠHals":4297,"ĠHÃ¼tte":4298,"Ġgegessen":4299,"alien":4300,"ĠFrie":4301,"Ġgrau":4302,"Ġfern":4303,"Ġlhnen":4304,"Ġlasst":4305,"Ġerz":4306,"Ġerster":4307,"Ġschie":4308,"Ġschme":4309,"recken":4310,"ĠaÃī":4311,"ĠTat":4312,"ĠTest":4313,"bef":4314,"utt":4315,"ĠUS":4316,"enne":4317,"ĠSchreibt":4318,"Ġtraf":4319,"lever":4320,"ĠZw":4321,"ĠZahn":4322,"ĠOhr":4323,"ĠgehÃ¶r":4324,"ĠCor":4325,"ĠComm":4326,"ĠSturm":4327,"Ġrisk":4328,"omit":4329,"wasser":4330,"Ġstir":4331,"ĠstÃ¼r":4332,"Ġredet":4333,"hers":4334,"Ġunseres":4335,"ĠheiÃŁ":4336,"Ġgefeuert":4337,"ĠFreut":4338,"Ġentlang":4339,"ĠMond":4340,"hafen":4341,"ĠSeele":4342,"Ġrauf":4343,"baren":4344,"Ġgleichen":4345,"Ã¼tze":4346,"ĠSchlimm":4347,"Ġjemandem":4348,"ĠGeraÃīd":4349,"ĠBergen":4350,"Ġschlagen":4351,"Ġgestohlen":4352,"ĠFlughafen":4353,"Ġtrinkt":4354,"Ġkriegt":4355,"ĠMinute":4356,"ĠBrand":4357,"Ġsolchen":4358,"Ġschlechter":4359,"Ġleisten":4360,"ĠBetty":4361,"drehen":4362,"press":4363,"Ġbewiesen":4364,"Ġverteid":4365,"ĠDeut":4366,"Ġverkauft":4367,"wÃ¼rd":4368,"ĠZiehen":4369,"ĠAtom":4370,"Ġflucht":4371,"ĠGemein":4372,"ĠMacAfe":4373,"Ġtele":4374,"Ġweder":4375,"ĠFrÃ¼hstÃ¼ck":4376,"Ġelf":4377,"ĠFlieger":4378,"ĠRadar":4379,"ĠStaats":4380,"ĠKellner":4381,"Ġschenken":4382,"Ġfreundlich":4383,"ĠnervÃ¶s":4384,"Ġhilft":4385,"ĠPadre":4386,"Ġunschuldig":4387,"ĠMÃ¶chtest":4388,"ifornien":4389,"ĠGentl":4390,"Ġvorbereitet":4391,"Ġyou":4392,"ĠEindruck":4393,"ĠTelegramm":4394,",..":4395,"EN":4396,"Sch":4397,"ax":4398,"bon":4399,"bot":4400,"bieren":4401,"dge":4402,"ezi":4403,"hel":4404,"mÃ¤":4405,"por":4406,"punkt":4407,"wagen":4408,"yle":4409,"iete":4410,"ichard":4411,"Ġsorgen":4412,"Ġwahnsinn":4413,"ĠSc":4414,"ĠSant":4415,"Ġmerken":4416,"geist":4417,"gelegt":4418,"Ġbill":4419,"ĠMasch":4420,"Ġeinzu":4421,"ĠApr":4422,"Ġkr":4423,"ond":4424,"Ġgestellt":4425,"Ġunge":4426,"ĠBord":4427,"ĠKÃ¶":4428,"ĠKathy":4429,"alter":4430,"schungs":4431,"schlossen":4432,"eth":4433,"Ġfei":4434,"Ġfangen":4435,"Ġfehl":4436,"ĠLoch":4437,"ĠLegen":4438,"ĠLÃ¼gen":4439,"ĠLÃ¤rm":4440,"Ġerh":4441,"Ġschau":4442,"Ġschlau":4443,"utler":4444,"umt":4445,"agd":4446,"ĠRichard":4447,"ĠJapan":4448,"Ġtats":4449,"Ġbestellt":4450,"ĠEspresso":4451,"rack":4452,"ĠVerm":4453,"ĠVern":4454,"ĠAnna":4455,"ffnet":4456,"reisen":4457,"iken":4458,"ikum":4459,"ĠmÃ¼ssten":4460,"ruckt":4461,"eilig":4462,"ĠMannes":4463,"ĠWerden":4464,"gelassen":4465,"schenkt":4466,"Ġentkommen":4467,"Ġentgegen":4468,"ĠKommun":4469,"Ġbrauch":4470,"ĠFront":4471,"Ġjedes":4472,"ĠschÃ¶ner":4473,"ĠDodge":4474,"ĠDoyle":4475,"Ġarmen":4476,"Ġweiteren":4477,"ĠberÃ¼":4478,"Ġzweiten":4479,"ĠSchwieger":4480,"pton":4481,"ĠKoffer":4482,"ĠJeden":4483,"ĠLeiche":4484,"Ġzieh":4485,"ĠBeim":4486,"werfen":4487,"ĠPapiere":4488,"Ġirgendwas":4489,"ĠFranzosen":4490,"ĠBrust":4491,"ĠWorauf":4492,"Ã¶sung":4493,"Ġschicke":4494,"ĠGlaubst":4495,"ĠFeinde":4496,"Ġfranz":4497,"ĠMichel":4498,"Ġerkennen":4499,"ĠPartner":4500,"ĠWÃ¼rden":4501,"ĠSchlafzimmer":4502,"ridge":4503,"Ġbemerkt":4504,"Ġverstecken":4505,"ĠBomberg":4506,"ĠJungfrau":4507,"ĠEurop":4508,"ĠSonntag":4509,"ĠPistole":4510,"ĠRake":4511,"ĠErfahrung":4512,"unktioniert":4513,"ĠSituation":4514,"ĠSchreibtisch":4515,"ĠCommander":4516,"ĠApril":4517,"ĠtatsÃ¤chlich":4518,"25":4519,"ER":4520,"Kay":4521,"bibliothek":4522,"ci":4523,"dney":4524,"fle":4525,"greich":4526,"hy":4527,"hÃ¼":4528,"ial":4529,"ider":4530,"ibst":4531,"mes":4532,"mass":4533,"oper":4534,"par":4535,"treten":4536,"ym":4537,"ĠÃ¤r":4538,"ĠSil":4539,"ĠShe":4540,"Ġnennt":4541,"ĠDien":4542,"Ã¼ch":4543,"irrt":4544,"arat":4545,"ĠAdr":4546,"Ġko":4547,"Ã¤lle":4548,"ĠHen":4549,"ĠKauf":4550,"ĠKorf":4551,"ĠFur":4552,"ierung":4553,"ĠLeg":4554,"ĠLÃ¼g":4555,"Ġlachen":4556,"annte":4557,"ĠTimm":4558,"ĠTab":4559,"ĠTaschen":4560,"ĠPh":4561,"ĠVom":4562,"lichkeit":4563,"Ġansehen":4564,"Ġmitten":4565,"Ġmiteinander":4566,"Ġmitgebracht":4567,"Ġaufhalten":4568,"Ãīing":4569,"Ġtanz":4570,"ĠErste":4571,"ĠOhren":4572,"Ġauszu":4573,"ĠCa":4574,"ĠCent":4575,"ĠCIi":4576,"ĠStan":4577,"ĠVerab":4578,"ĠVersuchen":4579,"Ġrichten":4580,"Ã¤nge":4581,"Ġnachdem":4582,"ĠWohn":4583,"Ġwohnen":4584,"leiben":4585,"ĠGesprÃ¤":4586,"ĠBeweise":4587,"ĠRed":4588,"atermass":4589,"Ġgewonnen":4590,"ĠFloren":4591,"ĠKommst":4592,"Ġ22":4593,"leichen":4594,"ĠMitch":4595,"ĠProdu":4596,"undert":4597,"ĠHosen":4598,"Ġschwierig":4599,"Ã¼tz":4600,"ĠRoeck":4601,"ĠSchwar":4602,"ĠÃĮein":4603,"ĠNachbar":4604,"fÃ¼hr":4605,"Ġgebaut":4606,"ĠFalle":4607,"echnet":4608,"Ġrechts":4609,"Ġvollkommen":4610,"Ġlhrem":4611,"Ġbewegen":4612,"Ġinteressieren":4613,"ĠkÃ¼ssen":4614,"sichtlich":4615,"ĠGedÃ¤cht":4616,"ĠVerstehe":4617,"ĠQuatermass":4618,"Ġheut":4619,"ĠSuite":4620,"Ġclever":4621,"ĠMotiv":4622,"ĠVerbrechen":4623,"ĠPatienten":4624,"ĠÃīiebe":4625,"ĠfÃ¼hlt":4626,"ĠAndrea":4627,"Ġcha":4628,"ĠForschungs":4629,"ĠGeburtstag":4630,"Ġschmutz":4631,"ĠZeichen":4632,"ĠKlappe":4633,"ĠInformationen":4634,"ĠÃ¼brig":4635,"ĠGeschenk":4636,"Ġentdeckt":4637,"ĠDetail":4638,"ĠBoris":4639,"ĠRechnung":4640,"ĠMacAfee":4641,"Ġwahnsinnig":4642,"ĠKorfu":4643,"ĠCIipton":4644,"ĠFlorence":4645,"ĠRoeckel":4646,"ĠGedÃ¤chtnis":4647,"St":4648,"blich":4649,"bruch":4650,"bleiben":4651,"dienst":4652,"dings":4653,"ij":4654,"ois":4655,"puter":4656,"rum":4657,"sw":4658,"sitzen":4659,"verne":4660,"inger":4661,"stra":4662,"stift":4663,"ĠSagt":4664,"anger":4665,"ĠDenn":4666,"ĠDruck":4667,"ara":4668,"ĠMy":4669,"ĠAbt":4670,"Ġunw":4671,"iten":4672,"ĠNene":4673,"schun":4674,"etwas":4675,"etwegen":4676,"Ġfallen":4677,"ĠfÃ¤ngt":4678,"ierk":4679,"ĠLhr":4680,"ĠLom":4681,"Ġschla":4682,"Ġverantwort":4683,"utig":4684,"ĠRespekt":4685,"amte":4686,"Ġbeob":4687,"Ġnochmal":4688,"ĠCutler":4689,"ĠrÃ¤":4690,"etztes":4691,"riner":4692,"Ġpassen":4693,"ĠGest":4694,"ĠGeorg":4695,"ĠWarriner":4696,"ĠWovon":4697,"heben":4698,"Ġrech":4699,"Ġ16":4700,"gert":4701,"Ġherunter":4702,"igens":4703,"eidung":4704,"ĠEng":4705,"ĠEngel":4706,"ĠMonpt":4707,"ĠGehirn":4708,"Ġdurchs":4709,"ĠVaters":4710,"Ġgerettet":4711,"Ã¼tzt":4712,"ĠPflicht":4713,"indern":4714,"ĠGenug":4715,"Ġruin":4716,"ĠZufall":4717,"Ġdorthin":4718,"ĠJede":4719,"Ġbestimm":4720,"ĠAngebot":4721,"Ġzieht":4722,"Ġeigenes":4723,"Ġkriege":4724,"Ġbewegt":4725,"Ġerwarte":4726,"ĠVerteid":4727,"ĠAtlant":4728,"ĠEtwa":4729,"ĠSÃ¼ÃŁer":4730,"ĠBahnhof":4731,"ĠSalz":4732,"uhigen":4733,"ĠSpinnwebwald":4734,"ĠGelegen":4735,"Ġfragte":4736,"ĠVerhandlung":4737,"ĠAngeklagten":4738,"ĠUngarn":4739,"ĠZigeuner":4740,"ĠVolk":4741,"ĠStatthalter":4742,"ĠSmithers":4743,"ĠAdresse":4744,"ĠTimmie":4745,"ĠMonpti":4746,"'re":4747,"ES":4748,"fliegen":4749,"hÃ¶r":4750,"ksam":4751,"ma":4752,"maschine":4753,"talien":4754,"viel":4755,"Ã¨":4756,"Ġ,":4757,"Ġdank":4758,"stÃ¼r":4759,"ĠSomm":4760,"ĠSelt":4761,"asen":4762,"asis":4763,"ĠWell":4764,"ĠDreck":4765,"ĠIs":4766,"arzt":4767,"ĠMittel":4768,"Ġvo":4769,"Ã¤ge":4770,"ĠHÃ¼":4771,"ĠNerv":4772,"ĠKor":4773,"alte":4774,"mmen":4775,"schrei":4776,"Ġfein":4777,"Ġlegen":4778,"Ġschuld":4779,"Ġschief":4780,"Ġschreibt":4781,"ĠTÃ¶":4782,"Ġverbr":4783,"Ġanz":4784,"ums":4785,"ĠSchlie":4786,"Ġwarm":4787,"Ãīen":4788,"Ġtro":4789,"ĠZiv":4790,"isiert":4791,"ĠCha":4792,"ĠCott":4793,"ĠStart":4794,"olo":4795,"ĠVerk":4796,"Ġums":4797,"Ġumbringen":4798,"Ġvorhin":4799,"ĠÃ¼berlegen":4800,"Ġspreche":4801,"Ġgesucht":4802,"ĠSobald":4803,"Ġhergekommen":4804,"ĠSpiegel":4805,"ĠAlten":4806,"ĠAlter":4807,"spr":4808,"ĠÃīn":4809,"ĠBew":4810,"rÃ¤ge":4811,"ĠFlÃ¼":4812,"Ġstecken":4813,"ĠamÃ¼s":4814,"Ġgeschlossen":4815,"Ġgeschickt":4816,"sterreich":4817,"Ġgleiche":4818,"ĠschwÃ¶ren":4819,"ĠRoss":4820,"ĠkÃ¶nntest":4821,"eller":4822,"itzer":4823,"ĠDarauf":4824,"ĠZukunft":4825,"ĠHatte":4826,"Ġbesteht":4827,"rengen":4828,"Ġbefinden":4829,"Ġsoldaten":4830,"Ã¼sse":4831,"zeitig":4832,"Ġreisen":4833,"Ġdringend":4834,"ĠBÃ¼hne":4835,"ĠVerstehen":4836,"Ġnahe":4837,"Ġengl":4838,"Ã¶ffnet":4839,"ĠSprich":4840,"ĠMex":4841,"ĠKÃ¼che":4842,"ĠerwÃ¤":4843,"ĠMacKenzie":4844,"ĠschlieÃŁlich":4845,"ĠHaltet":4846,"ĠVerschwinden":4847,"ĠMcKay":4848,"Ġaufregen":4849,"ÃīÃīeicht":4850,"ĠVerwand":4851,"ĠkÃ¼mmere":4852,"ĠChristine":4853,"Ġgeredet":4854,"ĠGrÃ¤fin":4855,"ĠTerry":4856,"Ġkaputt":4857,"Ġamerikanischen":4858,"Ġanbieten":4859,"ĠElekt":4860,"Ġfinanz":4861,"ĠRisiko":4862,"Ġgeholfen":4863,"ĠClanton":4864,"Ġnachgedacht":4865,"Ġerfolgreich":4866,"Ġstirbt":4867,"ĠfranzÃ¶s":4868,"ĠShears":4869,"ĠVerabred":4870,"ĠSeltsam":4871,"bin":4872,"fter":4873,"hon":4874,"nem":4875,"nisse":4876,"wehr":4877,"wbo":4878,"Ġrot":4879,"ĠSzen":4880,"ĠSÃ¤nger":4881,"anwalt":4882,"Ġnirgend":4883,"ĠnÃ¤mlich":4884,"Ġhielt":4885,"gesp":4886,"eite":4887,"ĠWin":4888,"ĠWeshalb":4889,"tektiv":4890,"Ġbat":4891,"aru":4892,"ĠMuss":4893,"ĠMedizin":4894,"Ġeinst":4895,"ĠHill":4896,"Ġgelie":4897,"ĠGinn":4898,"ĠBald":4899,"ĠBraut":4900,"ĠKen":4901,"ĠKrÃ¤":4902,"ĠFisch":4903,"Ġgingen":4904,"schrift":4905,"Ġfassen":4906,"ierten":4907,"ĠLab":4908,"Ġlhren":4909,"annen":4910,"Ġschwei":4911,"ema":4912,"emd":4913,"Ġdenk":4914,"ĠTro":4915,"ĠPante":4916,"ĠPsych":4917,"ĠVoll":4918,"indigkeit":4919,"Ġmitkommen":4920,"ĠtÃ¶r":4921,"euern":4922,"ĠZÃ¤":4923,"ĠZahlen":4924,"Ġbeein":4925,"Ġbeeilen":4926,"iller":4927,"ĠCross":4928,"ĠStahl":4929,"rÃ¼n":4930,"ĠIhres":4931,"Ġumgebracht":4932,"ĠvorwÃ¤rts":4933,"ĠlieÃŁ":4934,"leider":4935,"Ġnieman":4936,"Ġdarin":4937,"Ġzumindest":4938,"ppy":4939,"ppel":4940,"Ġstell":4941,"ĠenttÃ¤u":4942,"ĠKommando":4943,"Ġwegge":4944,"arriere":4945,"ĠschÃ¶nes":4946,"ĠMission":4947,"Ġweitere":4948,"Ġbere":4949,"Ġzweite":4950,"ĠRodney":4951,"ĠLust":4952,"itzig":4953,"merksam":4954,"Ġangekommen":4955,"ĠLeichen":4956,"Ġhelfe":4957,"Ġfrem":4958,"Ġgeblieben":4959,"ĠbefÃ¶rder":4960,"ĠCowbo":4961,"ĠBefehle":4962,"Ġverdienen":4963,"ĠHÃ¶rst":4964,"Ġbrachte":4965,"Ġbekomme":4966,"ĠKriegs":4967,"ĠSekunde":4968,"ĠMillion":4969,"ĠSonne":4970,"Ġerlebt":4971,"ĠGroÃŁmutter":4972,"ĠVerbindung":4973,"Ġaussehen":4974,"ĠBankier":4975,"ĠDanach":4976,"Ġvorgestellt":4977,"ĠhÃ¶ch":4978,"ĠZeugin":4979,"Ġverabschieden":4980,"Ġspielte":4981,"ĠMister":4982,"ĠÃ¼berzeugt":4983,"ĠWanda":4984,"sident":4985,"ĠEinzige":4986,"ĠEmmy":4987,"ĠGnade":4988,"Ġirgendwann":4989,"Ġtapfer":4990,"ĠBewegung":4991,"ladung":4992,"ĠGentleman":4993,"ĠMaschinen":4994,"ĠGesprÃ¤ch":4995,"ĠSommer":4996,"ĠPantele":4997,"Ġniemandem":4998,"20":4999,"CH":5000,"abend":5001,"bby":5002,"druck":5003,"flich":5004,"hie":5005,"kung":5006,"les":5007,"mack":5008,"pol":5009,"wachsen":5010,"Ġuber":5011,"chem":5012,"erei":5013,"ini":5014,"iebt":5015,"Ġsetz":5016,"Ġwetten":5017,"Ġmiss":5018,"Ġnetter":5019,"Ġhassen":5020,"eide":5021,"ĠWÃ¤hrend":5022,"aub":5023,"ĠIhm":5024,"tell":5025,"ĠEier":5026,"ĠAx":5027,"Ã¤hle":5028,"onel":5029,"ĠHolen":5030,"Ġged":5031,"Ġgeschenkt":5032,"ĠGre":5033,"ĠGÃī":5034,"ĠBur":5035,"ĠBla":5036,"ĠBase":5037,"ĠKÃī":5038,"ĠKra":5039,"ĠKennst":5040,"ĠKleider":5041,"ĠFort":5042,"Ġgrat":5043,"schuss":5044,"deut":5045,"ĠLehr":5046,"ĠLiter":5047,"Ã¼rgen":5048,"Ġlern":5049,"ĠlÃ¼gen":5050,"ssel":5051,"ĠaÃīs":5052,"ckung":5053,"ĠPhil":5054,"ÃŁig":5055,"umb":5056,"agg":5057,"ĠSchinken":5058,"ĠUnw":5059,"Ġgehalten":5060,"Ġwerfen":5061,"Ġmeint":5062,"ĠEinwill":5063,"hlt":5064,"ĠAnder":5065,"ometer":5066,"ffnung":5067,"oso":5068,"ĠstÃ¶rt":5069,"ĠWaren":5070,"head":5071,"ada":5072,"leisch":5073,"ĠInui":5074,"ĠAlte":5075,"usi":5076,"pfe":5077,"ĠBezie":5078,"Ġdeswegen":5079,"geld":5080,"Ġgewalt":5081,"etta":5082,"uchten":5083,"ĠFrl":5084,"Ġgeschw":5085,"stello":5086,"ĠMitzi":5087,"Ġdurcheinander":5088,"Ġarme":5089,"ĠMaria":5090,"ĠmÃ¶chtest":5091,"Ġjemals":5092,"ĠAbsicht":5093,"uldigt":5094,"ĠGerade":5095,"Ġhoffen":5096,"Ġerfreut":5097,"ĠRechts":5098,"ĠSagte":5099,"bow":5100,"Ġkriegst":5101,"Ġbeginnt":5102,"Ġrechtzeitig":5103,"ĠCostello":5104,"ĠVerzeih":5105,"ĠJoyce":5106,"Ġbenutzt":5107,"ĠDonner":5108,"ĠComputer":5109,"Ã©on":5110,"ĠGrÃ¼n":5111,"ĠMÃ¼he":5112,"sky":5113,"ĠGesetzes":5114,"ĠFernsehen":5115,"ĠLinda":5116,"Ġ80":5117,"ĠTatsachen":5118,"ĠZigarre":5119,"ĠRufus":5120,"ĠBauch":5121,"Ã¤hnchen":5122,"ĠÃ¼berraschen":5123,"ĠsÃ¼ÃŁ":5124,"ĠtrÃ¤gt":5125,"ĠzerstÃ¶rt":5126,"ĠBesseres":5127,"traktiv":5128,"ĠSchauspielerin":5129,"ĠKalifornien":5130,"Ġannehmen":5131,"Ġerreicht":5132,"ĠBroadhead":5133,"ĠPanik":5134,"ĠbÃīei":5135,"ezial":5136,"ĠForschungsbibliothek":5137,"ĠCotton":5138,"ĠLabor":5139,"ĠEinwilligung":5140,".,":5141,"bÃ¼r":5142,"fre":5143,"gan":5144,"kur":5145,"of":5146,"ohnt":5147,"post":5148,"rolle":5149,"uster":5150,"wen":5151,"Ġ0":5152,"Ġdest":5153,"Ġsatt":5154,"ĠSter":5155,"ĠSha":5156,"Ġhm":5157,"auern":5158,"ĠMart":5159,"ona":5160,"ĠHor":5161,"ĠHÃ¤hnchen":5162,"Ġgelogen":5163,"ĠBrot":5164,"ĠNunge":5165,"ĠFas":5166,"ĠFle":5167,"Ġfunktioniert":5168,"ĠJÃ¼rgen":5169,"ĠLÃ¶":5170,"Ġlinks":5171,"recher":5172,"emp":5173,"ĠTitel":5174,"urai":5175,"Ġverboten":5176,"ĠPa":5177,"ĠPra":5178,"ĠPelz":5179,"ĠSchuss":5180,"ĠSchande":5181,"Ġaufmachen":5182,"ĠjÃ¼n":5183,"ĠtÃ¤":5184,"lecht":5185,"Ġbeten":5186,"ĠbefÃ¼r":5187,"see":5188,"ĠEinspruch":5189,"andet":5190,"Ġseines":5191,"ĠAnn":5192,"ĠAnzahl":5193,"Ġnachdenken":5194,"Ġpf":5195,"osÃ©":5196,"ĠGestern":5197,"ĠstÃ¶ren":5198,"laubt":5199,"weist":5200,"Ġreichen":5201,"ikationen":5202,"ugh":5203,"assung":5204,"ĠInd":5205,"gere":5206,"nete":5207,"ĠSpring":5208,"lose":5209,"ĠArg":5210,"igent":5211,"spir":5212,"spiegel":5213,"ĠGesund":5214,"Ġgewinnen":5215,"impf":5216,"Ġgeschah":5217,"Ġdiesmal":5218,"Ġverlangen":5219,"Ġbleib":5220,"ĠGeschichten":5221,"ĠKlasse":5222,"atzt":5223,"ĠLud":5224,"ĠBerge":5225,"Ġziehe":5226,"ĠbegrÃ¼":5227,"ĠWillkommen":5228,"teressant":5229,"rottel":5230,"ĠGewalt":5231,"folger":5232,"ehnt":5233,"ĠIrland":5234,"ĠWelches":5235,"ĠBÃ¼cher":5236,"ĠFamilien":5237,"Ġbrit":5238,"ĠKaiserliche":5239,"Ġbekam":5240,"ĠKarten":5241,"ĠPause":5242,"ĠColi":5243,"Ġ150":5244,"Ġwider":5245,"Ġheiratest":5246,"ĠEnglÃ¤nder":5247,"ĠSancho":5248,"Ġbemerken":5249,"Ġholt":5250,"ĠPilot":5251,"ĠTreppe":5252,"ĠunglÃ¼ck":5253,"ĠStuhl":5254,"ĠgewÃ¶hnt":5255,"ĠBÃ¶ser":5256,"laublich":5257,"ĠSamurai":5258,"ĠApparat":5259,"ĠMelech":5260,"irkus":5261,"ĠAuftrag":5262,"musik":5263,"ĠAgentur":5264,"Ġbegleiten":5265,"Ġverlobt":5266,"ĠHollywood":5267,"ĠGerede":5268,"ĠVersteck":5269,"Ġtelefon":5270,"ĠDetails":5271,"Ġverantwortlich":5272,"ĠGinny":5273,"Ġdesto":5274,"ĠNungesser":5275,"200":5276,"bu":5277,"bet":5278,"dung":5279,"gna":5280,"gado":5281,"heim":5282,"kÃīich":5283,"mar":5284,"ment":5285,"uckt":5286,"ummern":5287,"vi":5288,"wend":5289,"zut":5290,"zwischen":5291,"Ġdel":5292,"Ġdick":5293,"stÃ¼tzen":5294,"Ġwitzig":5295,"ĠSÃ¼n":5296,"ĠSitz":5297,"unehmen":5298,"Ġharm":5299,"ĠhieÃŁ":5300,"ĠWache":5301,"ĠDun":5302,"ĠDingen":5303,"Ã¼lt":5304,"irb":5305,"ĠbÃ¶s":5306,"Ġbieten":5307,"arbeit":5308,"Ġeinverstanden":5309,"ĠEcke":5310,"Ã¤men":5311,"hron":5312,"ĠHolz":5313,"ĠGna":5314,"ĠGou":5315,"orde":5316,"itiv":5317,"ĠBand":5318,"ĠBringt":5319,"ĠKas":5320,"ĠKump":5321,"Ġzuruck":5322,"tent":5323,"schlafen":5324,"schiff":5325,"Ġfe":5326,"Ġfiel":5327,"ĠJagd":5328,"ĠLachen":5329,"ĠLaut":5330,"ĠLeitung":5331,"ssheriff":5332,"rekt":5333,"reckt":5334,"ĠThron":5335,"ura":5336,"urra":5337,"ĠPrÃ¼":5338,"ĠVal":5339,"ĠVeg":5340,"Ġangen":5341,"ĠWasch":5342,"ĠSchei":5343,"ĠSchicken":5344,"ĠScherz":5345,"Ġwiegt":5346,"ĠZiel":5347,"ĠZwe":5348,"ĠOffen":5349,"ĠOze":5350,"ĠDiesen":5351,"rain":5352,"raben":5353,"Ġwerd":5354,"ĠCell":5355,"ĠStich":5356,"ĠStand":5357,"ĠEingang":5358,"andro":5359,"olog":5360,"Ã¶rung":5361,"ĠVersprechen":5362,"ilette":5363,"ringe":5364,"Ã¤tzen":5365,"ĠÃ¼berw":5366,"ĠÃ¼bernehmen":5367,"Ġspiele":5368,"ĠweiÃŁen":5369,"Ġwovon":5370,"Ġgesamte":5371,"ĠSofort":5372,"Ġ17":5373,"Ġbesorgt":5374,"ĠAlice":5375,"lied":5376,"sport":5377,"ĠLiebst":5378,"Ġ24":5379,"Ġ200":5380,"agessen":5381,"ĠMeinst":5382,"steller":5383,"ĠRufe":5384,"ĠMittag":5385,"Ġwurdest":5386,"ĠChink":5387,"ĠKlingt":5388,"Ġberuhig":5389,"ĠMarine":5390,"ĠPfei":5391,"ĠSchwein":5392,"ĠDenken":5393,"ĠÃĮr":5394,"Ġhalbe":5395,"ĠDaran":5396,"indel":5397,"ĠJedes":5398,"Ġirre":5399,"ĠLeb":5400,"Ġgestorben":5401,"Ã¤hrst":5402,"zeuge":5403,"Ġbefohlen":5404,"Ġleiden":5405,"dreht":5406,"Ġwussten":5407,"Ġvertrauen":5408,"Ġvertraut":5409,"kow":5410,"Ġebenso":5411,"ĠBenzin":5412,"ĠHochbahn":5413,"stÃ¤ndig":5414,"ĠMaddu":5415,"Ġgebeten":5416,"ĠGeduld":5417,"ĠgekÃ¼":5418,"Ã¤lte":5419,"ĠwÃ¼nsche":5420,"ĠTrick":5421,"Ġstarb":5422,"Ġverschwinden":5423,"ĠDirekt":5424,"Ġverbinden":5425,"Ġkompl":5426,"ĠSchweiz":5427,"ĠChez":5428,"Ġbeleid":5429,"ĠRegiment":5430,"ĠSoldat":5431,"ĠSelbstverstÃ¤ndlich":5432,"ĠBrÃ¼ssel":5433,"ĠEnglisch":5434,"ĠGefÃ¼hle":5435,"gewicht":5436,"Ġlauter":5437,"ĠDienstag":5438,"Ġelekt":5439,"ĠLiebhaber":5440,"ĠNachrichten":5441,"Ġversteckt":5442,"Ġaufregend":5443,"ĠvieÃī":5444,"ĠBerner":5445,"rechung":5446,"ĠGrischka":5447,"packt":5448,"ĠHilfssheriff":5449,"Ã¶dsinn":5450,"ĠkÃ¼mmert":5451,"ĠDummkopf":5452,"olution":5453,"ĠKunst":5454,"Ġverfolgen":5455,"ĠSchmerzen":5456,"Ġerledigt":5457,"Ġperfekt":5458,"ĠBÃ¤ume":5459,"ĠLippen":5460,"ĠMittagessen":5461,"Ġschmeckt":5462,"ĠScot":5463,"ĠEuropa":5464,"hÃ¼ter":5465,"schungel":5466,"ĠerwÃ¤hnt":5467,"ĠGesetzeshÃ¼ter":5468,"ĠGesundheit":5469,"ĠGnaden":5470,"ĠKumpel":5471,"ĠMaddux":5472,"Cla":5473,"Mar":5474,"beh":5475,"bchen":5476,"dl":5477,"for":5478,"jim":5479,"kal":5480,"karte":5481,"lÃ¤u":5482,"rÃ¤n":5483,"up":5484,"uft":5485,"Ġsamm":5486,"stem":5487,"anen":5488,"Ġmarsch":5489,"Ġnehm":5490,"Ġnix":5491,"geht":5492,"gestellt":5493,"ĠWest":5494,"ĠWesen":5495,"ĠWunsch":5496,"Ġbrechen":5497,"ĠAspir":5498,"Ġkn":5499,"Ã¤hig":5500,"ĠHunk":5501,"ĠGi":5502,"ĠGru":5503,"ĠBan":5504,"ĠKlo":5505,"ĠForm":5506,"ĠFarm":5507,"schlieÃŁen":5508,"Ġfor":5509,"Ġfrie":5510,"ĠLÃ¶sung":5511,"Ġlch":5512,"Ġersp":5513,"Ġschauen":5514,"ĠTsu":5515,"ĠTrotz":5516,"Ġverscha":5517,"Ġverbringen":5518,"Ġversuch":5519,"ĠPÃ¼":5520,"ĠPet":5521,"ĠPos":5522,"Ġinf":5523,"Ġanzu":5524,"Ġmitgenommen":5525,"ĠRinder":5526,"ĠRunter":5527,"ĠWashin":5528,"ĠSchicks":5529,"Ġjust":5530,"ĠZeiten":5531,"Ġbeendet":5532,"ĠWirst":5533,"iske":5534,"olden":5535,"ĠAnne":5536,"Ġvorne":5537,"istisch":5538,"ĠwofÃ¼r":5539,"gton":5540,"hew":5541,"rÃ¼ckte":5542,"leiter":5543,"ĠIns":5544,"Ġabger":5545,"zuki":5546,"lock":5547,"ppelt":5548,"imaru":5549,"ĠFlÃ¼gel":5550,"zept":5551,"Ġentschieden":5552,"ĠMay":5553,"Ġweglaufen":5554,"uchst":5555,"Ġverliert":5556,"ĠschÃ¶nen":5557,"artier":5558,"ĠGehalt":5559,"ĠProjekt":5560,"ĠHose":5561,"ĠGrunde":5562,"Ġruf":5563,"wohn":5564,"Ġ300":5565,"Ġhoffentlich":5566,"ĠPark":5567,"ĠPardon":5568,"Ġed":5569,"ĠKindern":5570,"ibel":5571,"Ġlangwei":5572,"Ã¤mpfer":5573,"komme":5574,"plos":5575,"ĠWillen":5576,"Ġirgendetwas":5577,"Ġjedenfalls":5578,"ĠWissenschaft":5579,"ĠExplos":5580,"ĠDeal":5581,"Ġschaff":5582,"Ġverdammt":5583,"ĠFilme":5584,"ĠhÃ¶rst":5585,"ĠWelchen":5586,"ĠVertrauen":5587,"umente":5588,"ĠZiemlich":5589,"Ġwelchem":5590,"athem":5591,"ĠTony":5592,"selbe":5593,"ĠFujim":5594,"ĠJanice":5595,"ĠGesetze":5596,"isky":5597,"ĠColumb":5598,"Ġaussieht":5599,"holt":5600,"ĠHalte":5601,"ĠGleiche":5602,"gewÃ¶hn":5603,"ĠEvan":5604,"Ġlautet":5605,"ension":5606,"ĠBauern":5607,"ĠPlaza":5608,"Ġgespielt":5609,"ĠÃĸsterreich":5610,"ĠWhisky":5611,"schnitt":5612,"ĠBrenner":5613,"ĠKunimaru":5614,"ĠRussell":5615,"ĠBesonders":5616,"ĠMÃ¤dels":5617,"ĠMÃ¶glichkeit":5618,"ĠMetho":5619,"Ġschulde":5620,"ĠMargot":5621,"ĠÃ¤hnlich":5622,"ĠPublikum":5623,"ĠKilometer":5624,"Ġangreifen":5625,"ĠLÃ¼gner":5626,"ĠAtlantik":5627,"ĠGelegenheit":5628,"ĠVerabredung":5629,"ĠbefÃ¶rdert":5630,"ĠAxin":5631,"ĠMelechow":5632,"ĠGouverne":5633,"ĠValeri":5634,"ĠVega":5635,"Claire":5636,"ĠAspirin":5637,"ĠTsuzuki":5638,"ĠWashington":5639,"iskey":5640,"ĠFujimak":5641,"30":5642,"Mau":5643,"durch":5644,"hat":5645,"iater":5646,"jen":5647,"kon":5648,"nt":5649,"nach":5650,"nungen":5651,"ram":5652,"ucken":5653,"zÃ¼g":5654,"Ġdreck":5655,"ieu":5656,"Ġstet":5657,"anst":5658,"anter":5659,"ĠmaÃī":5660,"Ġnah":5661,"ĠWall":5662,"ĠWider":5663,"Ã¼ler":5664,"ĠSieg":5665,"ark":5666,"ĠMisch":5667,"Ġeinstellen":5668,"Ġhallo":5669,"Ġkur":5670,"Ġkauf":5671,"ĠHunde":5672,"ĠHÃ¤l":5673,"ĠGang":5674,"ĠGerne":5675,"ital":5676,"ĠBrÃ¤":5677,"ĠBande":5678,"acher":5679,"ĠNett":5680,"ĠNarr":5681,"ĠKi":5682,"ĠKoll":5683,"ĠKurt":5684,"ĠFirma":5685,"Ġgn":5686,"Ġgil":5687,"Ġgibst":5688,"bereit":5689,"ĠLast":5690,"ĠwirkÃīich":5691,"Ġscheinen":5692,"reden":5693,"redet":5694,"ĠVill":5695,"Ġanst":5696,"ĠRut":5697,"ĠRitt":5698,"ĠRennen":5699,"ĠScha":5700,"ĠSchutz":5701,"ĠSchÃ¤tz":5702,"Ãīd":5703,"ĠUntern":5704,"ĠErf":5705,"ĠErben":5706,"ĠZeigen":5707,"ĠZehn":5708,"ĠZwischen":5709,"Ġbegeg":5710,"Ġbeweist":5711,"ĠOpfer":5712,"illen":5713,"ĠCollege":5714,"Ġhiermit":5715,"ĠEinige":5716,"olf":5717,"olit":5718,"ĠAngel":5719,"ilder":5720,"immy":5721,"Ġvorn":5722,"osph":5723,"Ġstreng":5724,"adet":5725,"Ġrepar":5726,"ĠHaÃīÃī":5727,"ĠHaare":5728,"ĠDav":5729,"ĠInst":5730,"losen":5731,"sprochen":5732,"ĠÃīst":5733,"pfl":5734,"pfel":5735,"mensch":5736,"ppeln":5737,"ĠReich":5738,"rÃ¤ume":5739,"ĠgewÃ¤hlt":5740,"Ġgeflogen":5741,"Ġ28":5742,"verl":5743,"ĠGutes":5744,"ĠRufen":5745,"Ġunternehmen":5746,"bare":5747,"ĠProbe":5748,"ĠKlima":5749,"ĠGrÃ¶":5750,"Ã¼tiger":5751,"ĠAller":5752,"ĠDenbow":5753,"Ã¤ude":5754,"Ġhalb":5755,"indestens":5756,"iven":5757,"ĠPlatte":5758,"ĠGerÃ¤u":5759,"waffnet":5760,"ĠfÃ¼hlen":5761,"Ġeuren":5762,"ĠBour":5763,"ĠToten":5764,"Ġdreh":5765,"ĠEntscheidung":5766,"Ġerfunden":5767,"ogramm":5768,"Ġbeginnen":5769,"Ġausgezeichnet":5770,"werter":5771,"hauen":5772,"Ġgelassen":5773,"scheinend":5774,"urteilen":5775,"ĠAutogramm":5776,"Ġschaden":5777,"ĠOkay":5778,"ĠGebiet":5779,"Ġtreu":5780,"Ġeinziger":5781,"Ã©r":5782,"ĠwÃ¼nscht":5783,"Ġproben":5784,"Ġverspreche":5785,"wiesen":5786,"mÃ¶gen":5787,"ĠUrteil":5788,"ĠSÃ¼den":5789,"ĠAlej":5790,"Ġerwachsen":5791,"kehren":5792,"ĠFinanz":5793,"ĠSelbstmord":5794,"ĠWege":5795,"ĠLichter":5796,"romant":5797,"ĠfÃ¼hlst":5798,"ĠHÃ¤tten":5799,"ĠLiebÃīing":5800,"ĠhÃ¶her":5801,"ĠSchlÃ¼sse":5802,"ĠHusten":5803,"ĠVerschwinde":5804,"ĠFeier":5805,"ĠPersonal":5806,"ĠTombst":5807,"hilfe":5808,"stoff":5809,"ĠEurer":5810,"Ġatmen":5811,"ĠBrennan":5812,"ĠAngeklagte":5813,"ĠVize":5814,"ĠSchmerz":5815,"ĠwoÃīÃīen":5816,"ĠFarbe":5817,"Ġauftau":5818,"Ġsprichst":5819,"film":5820,"ĠSchlimmste":5821,"ĠberÃ¼hm":5822,"Ã¼chtern":5823,"ĠTabl":5824,"ĠNerven":5825,"ĠPantelejewitsch":5826,"ĠCello":5827,"Ġstets":5828,"Ġgilt":5829,"'m":5830,"hd":5831,"hÃ¼tte":5832,"ius":5833,"kom":5834,"oise":5835,"tschaft":5836,"weh":5837,"wand":5838,"zÃ¼glich":5839,"zunehmen":5840,"Ġdachten":5841,"inz":5842,"inne":5843,"Ġsingt":5844,"stung":5845,"Ġwach":5846,"Ġwagen":5847,"Ġwachsen":5848,"ĠSau":5849,"ĠSeid":5850,"ĠSauer":5851,"ask":5852,"Ġnette":5853,"ĠWem":5854,"ĠWus":5855,"ĠDich":5856,"ĠDutzen":5857,"ause":5858,"arten":5859,"Ġklo":5860,"Ã¤st":5861,"Ã¤se":5862,"onika":5863,"ĠHÃ¤nden":5864,"ĠgeÃ¶ffnet":5865,"ĠGin":5866,"ĠGift":5867,"ĠBal":5868,"ĠBeine":5869,"ĠButter":5870,"ĠNic":5871,"Ġzurecht":5872,"schauen":5873,"Ġfau":5874,"Ġfeige":5875,"ĠJimmy":5876,"ĠLÃ¤ch":5877,"ĠLetzte":5878,"Ã¼ren":5879,"ehnen":5880,"Ġlag":5881,"Ġleu":5882,"Ġleg":5883,"Ġerhalten":5884,"Ġschne":5885,"rem":5886,"ĠTank":5887,"ĠTrottel":5888,"urger":5889,"ĠPater":5890,"ĠPension":5891,"ĠViele":5892,"ator":5893,"enner":5894,"ĠRie":5895,"ĠRÃ¼":5896,"ĠRot":5897,"ĠJames":5898,"ĠSchritte":5899,"Ġaufger":5900,"Ġaussteigen":5901,"ĠStief":5902,"ĠVermÃ¶gen":5903,"Ġalbern":5904,"rino":5905,"ĠprÃ¤":5906,"reiÃŁen":5907,"Ġstammt":5908,"Ġmehrere":5909,"ĠSogar":5910,"ĠDabei":5911,"Ġabgeben":5912,"Ġheran":5913,"Ġherkommen":5914,"zukommen":5915,"zustand":5916,"ĠAlid":5917,"ruh":5918,"ickelt":5919,"Ġgefahren":5920,"ĠMadem":5921,"Ġbrauchte":5922,"ĠverstÃ¤nd":5923,"uchs":5924,"ĠverlÃ¤sst":5925,"ĠJou":5926,"rib":5927,"riffen":5928,"ĠRussen":5929,"Ġunterhalten":5930,"haway":5931,"ĠProzess":5932,"ĠProzent":5933,"teln":5934,"ĠRoger":5935,"ĠStellen":5936,"ĠSteak":5937,"ellen":5938,"ĠKogna":5939,"Ã¤use":5940,"Ġgarant":5941,"ĠSeiten":5942,"ĠselbstverstÃ¤ndlich":5943,"ĠBlick":5944,"Ġerstaun":5945,"ĠGerald":5946,"ĠAusnahme":5947,"ĠHathaway":5948,"ĠGlÃ¼ckw":5949,"Ã¤mpft":5950,"Ġkonnen":5951,"erseits":5952,"ĠMÃ¶gen":5953,"ĠTÃ¼ren":5954,"ĠCooper":5955,"Ġbewusst":5956,"Ġbehandelt":5957,"Ġbehandeln":5958,"ĠExper":5959,"ĠgroÃŁzÃ¼g":5960,"ĠDetektiv":5961,"ĠReihe":5962,"ĠPope":5963,"ĠIrr":5964,"Ġeinzigen":5965,"Ġversprechen":5966,"Ġfragt":5967,"ĠÃĦrzte":5968,"ĠQuij":5969,"ĠGlad":5970,"selben":5971,"Ġverwundet":5972,"ĠSchuhe":5973,"ĠKrankheit":5974,"ĠverlieÃŁ":5975,"ĠflÃ¼":5976,"ĠMete":5977,"orium":5978,"ĠSekret":5979,"Ġgeglaubt":5980,"ĠPaula":5981,"ĠColonel":5982,"arbeiten":5983,"ĠZigarette":5984,"Ġteuer":5985,"ĠGeschwindigkeit":5986,"Ġexist":5987,"ĠHeiraten":5988,"Ã¼ndung":5989,"ĠIrgendwo":5990,"ĠPlace":5991,"ĠBernad":5992,"stoÃŁen":5993,"ĠHolt":5994,"Ġattraktiv":5995,"grund":5996,"Ġschwarz":5997,"Ġgebrauchen":5998,"Ġgebraucht":5999,"gegangen":6000,"ĠKatze":6001,"ĠBÃ¼rgermeister":6002,"ĠContent":6003,"Ġstudiert":6004,"Ġdunkel":6005,"ĠMerrino":6006,"ĠschlÃ¤gt":6007,"Ã¶lf":6008,"ĠlÃ¼gt":6009,"ĠErklÃ¤rung":6010,"ĠMeister":6011,"Ġengag":6012,"Ġfehlen":6013,"ĠAbteilung":6014,"ĠVerteidigung":6015,"ĠSchlieÃŁlich":6016,"ĠPsychiater":6017,"Ġgratul":6018,"ĠMartin":6019,"Ġharmlos":6020,"ĠAxinja":6021,"ĠHÃ¤lfte":6022,"ĠAngeles":6023,"ĠAlejandro":6024,"oiselle":6025,"ĠAlidos":6026,"ĠMademoiselle":6027,"ĠKognak":6028,"ĠgroÃŁzÃ¼gig":6029,"ĠContention":6030,"500":6031,"aal":6032,"aÃīÃī":6033,"bau":6034,"da":6035,"eves":6036,"fert":6037,"fangen":6038,"firma":6039,"gierig":6040,"hei":6041,"hang":6042,"iÃīÃī":6043,"mÃ¼":6044,"messer":6045,"plo":6046,"sm":6047,"uden":6048,"use":6049,"vie":6050,"volle":6051,"weit":6052,"wungen":6053,"Ġorgan":6054,"Ġdisk":6055,"Ġdschungel":6056,"Ġsinn":6057,"Ġwisst":6058,"einlich":6059,"Ġhau":6060,"Ġhung":6061,"ĠWagg":6062,"ĠDÃ¼r":6063,"ĠMagen":6064,"ĠMerk":6065,"Ġeiniges":6066,"ĠAdel":6067,"Ġkon":6068,"ĠkÃ¶rper":6069,"ĠHon":6070,"ĠHank":6071,"Ġgepl":6072,"Ġgeirrt":6073,"ĠGal":6074,"ĠGrie":6075,"ĠGruppe":6076,"oral":6077,"orten":6078,"ĠBurt":6079,"ĠBÃ¤rchen":6080,"achst":6081,"ĠNo":6082,"ĠNar":6083,"ĠNarren":6084,"ĠKna":6085,"ĠFÃ¶r":6086,"ĠFass":6087,"Ġfing":6088,"Ġfuh":6089,"ĠLager":6090,"Ġerb":6091,"ĠerhÃ¶":6092,"denten":6093,"reie":6094,"rechst":6095,"ĠaIs":6096,"Ġderen":6097,"ĠToll":6098,"urn":6099,"ĠPech":6100,"ĠPack":6101,"ĠPersÃ¶n":6102,"ĠPred":6103,"ĠVas":6104,"Ġmitmachen":6105,"ĠRoll":6106,"ĠRiesen":6107,"ĠSchreck":6108,"ĠSchritt":6109,"Ãīa":6110,"Ãīn":6111,"Ġtrifft":6112,"ĠErd":6113,"lehrer":6114,"Ġgehor":6115,"Ġdaher":6116,"Ġausger":6117,"ĠCamp":6118,"ĠStre":6119,"ĠStamm":6120,"ĠSteig":6121,"andal":6122,"ols":6123,"olph":6124,"ftig":6125,"ĠVerfl":6126,"ĠVeronika":6127,"Ġran":6128,"ĠAnzug":6129,"Ã¤nen":6130,"Ġmussten":6131,"Ġpeinlich":6132,"Ġstimme":6133,"ĠWartet":6134,"ulver":6135,"Ġwohn":6136,"Ġrechte":6137,"ikop":6138,"Ġabl":6139,"Ġ1000":6140,"estern":6141,"ĠSprechen":6142,"ĠArch":6143,"spro":6144,"ĠBeer":6145,"ĠBello":6146,"ingdon":6147,"ĠWert":6148,"angha":6149,"ĠReeves":6150,"rÃ¤umt":6151,"aterie":6152,"aterial":6153,"gelder":6154,"Ġgewohnt":6155,"ims":6156,"ĠFlats":6157,"ĠAufhÃ¶ren":6158,"Ġklug":6159,"eldung":6160,"Ġentw":6161,"Ġentz":6162,"ĠVorwerk":6163,"ĠRudi":6164,"arty":6165,"Ġdurchge":6166,"underte":6167,"ĠKlin":6168,"Ġschwach":6169,"ĠMarsch":6170,"ordnet":6171,"ĠEntfern":6172,"Ġneuer":6173,"ĠParf":6174,"Ġangeb":6175,"ĠTode":6176,"ĠFlugplatz":6177,"ĠMikis":6178,"Ġkrieg":6179,"ĠWillingdon":6180,"Ġbescheiden":6181,"ĠExport":6182,"Ġbezwei":6183,"Ġvermissen":6184,"ĠKÃ¶nigs":6185,"ĠTeam":6186,"Ġdrinnen":6187,"Ġfalsche":6188,"ĠMÃ¼ll":6189,"Ġdeutlich":6190,"ĠStraÃŁen":6191,"ĠGrad":6192,"ĠbÃ¶sen":6193,"gefunden":6194,"Ġerkannt":6195,"ĠLohn":6196,"ĠKnie":6197,"ĠShangha":6198,"ĠFahrt":6199,"Ġsprachen":6200,"ĠEmil":6201,"ĠDolly":6202,"nahmen":6203,"Ġ194":6204,"ĠHelikop":6205,"Ġexplo":6206,"spieler":6207,"ĠPrima":6208,"ĠRadio":6209,"Ġmelde":6210,"ĠStaat":6211,"ĠEile":6212,"ĠEisen":6213,"ĠJuana":6214,"ĠAkten":6215,"ĠBeding":6216,"ĠverÃīoren":6217,"Ġverstehst":6218,"ĠKleiner":6219,"ĠNatal":6220,"ĠEigentlich":6221,"ĠerklÃ¤rt":6222,"Ġverzeihen":6223,"ĠErzÃ¤hlen":6224,"ĠInteresse":6225,"ĠgrÃ¶ÃŁte":6226,"Ġwichtige":6227,"ĠgÃīaube":6228,"ĠTruppen":6229,"ĠNichoÃīs":6230,"befehl":6231,"Ġverteidigen":6232,"Ġfeiern":6233,"ĠCaf":6234,"Ġtrocken":6235,"ĠRossi":6236,"ĠWinter":6237,"ĠGreen":6238,"ĠBaseball":6239,"ĠBeziehung":6240,"freund":6241,"ĠjÃ¼nger":6242,"ĠColumbia":6243,"ĠFujimaki":6244,"ĠRuthie":6245,"ĠUnternehmen":6246,"ĠHaÃīÃīo":6247,"ĠTombstone":6248,"ĠGladys":6249,"ĠMerrinoe":6250,"ĠShanghai":6251,"ĠHelikopter":6252,"Ġexplod":6253,"abe":6254,"bs":6255,"beln":6256,"cy":6257,"car":6258,"ect":6259,"fÃ¤ll":6260,"gy":6261,"gangen":6262,"gleichen":6263,"gÃ¼lt":6264,"hÃ¤lt":6265,"kn":6266,"let":6267,"mosph":6268,"ode":6269,"paar":6270,"rÃ¤t":6271,"rieren":6272,"sein":6273,"via":6274,"yu":6275,"zar":6276,"Ãľ":6277,"Ġra":6278,"Ġeilig":6279,"ena":6280,"eren":6281,"Ġdanken":6282,"ieg":6283,"ieber":6284,"Ġsetzt":6285,"staben":6286,"Ġwahren":6287,"Ġwette":6288,"ĠSÃ¤":6289,"Ġmo":6290,"Ġmachten":6291,"Ġno":6292,"unition":6293,"ĠWÃ¼n":6294,"ĠDachte":6295,"Ġill":6296,"Ġisst":6297,"ausch":6298,"Ã¼m":6299,"ĠMauer":6300,"ĠMÃ¤rchen":6301,"ĠMunition":6302,"ĠEuren":6303,"ĠAst":6304,"ĠAff":6305,"Ã¤chtig":6306,"Ġgelebt":6307,"ĠGei":6308,"iti":6309,"ĠBad":6310,"ĠBatt":6311,"ĠNahr":6312,"ĠNeben":6313,"ĠKol":6314,"ĠKraft":6315,"ĠKarriere":6316,"altet":6317,"alitÃ¤t":6318,"ĠgÃ¼tig":6319,"schalten":6320,"Ġfanden":6321,"Ġfuhr":6322,"Ġesse":6323,"ierst":6324,"ĠLande":6325,"Ġlog":6326,"ĠlÃ¶sen":6327,"Ġschmei":6328,"Ġabend":6329,"ĠTrÃ¼":6330,"ĠTot":6331,"ĠTed":6332,"ĠTreten":6333,"ĠTanzen":6334,"Ġverfl":6335,"Ġverpasst":6336,"ĠPey":6337,"ĠPasst":6338,"ĠPorte":6339,"Ġinner":6340,"bekommen":6341,"ĠRunde":6342,"ĠRanch":6343,"ĠSchen":6344,"ĠSchie":6345,"ĠSchach":6346,"ĠSchur":6347,"ĠSchrank":6348,"Ġaufgeben":6349,"Ġaufpassen":6350,"ĠUns":6351,"ĠUnfall":6352,"ĠUnmÃ¶glich":6353,"Ġbeant":6354,"ĠEsk":6355,"ish":6356,"Ġaushalten":6357,"andy":6358,"olver":6359,"Ġrespekt":6360,"ilde":6361,"Ġvorzu":6362,"Ġvoraus":6363,"ktu":6364,"ĠÃ¼berfallen":6365,"reiter":6366,"Ġwillkommen":6367,"ĠstÃ¤r":6368,"Ġwoher":6369,"Ġmanche":6370,"Ġgesungen":6371,"Ġkeins":6372,"Ġherz":6373,"ĠSpur":6374,"ĠSpitz":6375,"ĠSpezial":6376,"ĠSprechst":6377,"ĠAlpen":6378,"log":6379,"liebe":6380,"ĠBedeut":6381,"Ġdessen":6382,"ĠWerbung":6383,"abr":6384,"abine":6385,"abeth":6386,"Ġgefangen":6387,"ĠFrech":6388,"ĠRupert":6389,"ĠMontag":6390,"ĠWeise":6391,"ĠHaut":6392,"ĠKlient":6393,"Ġweitermachen":6394,"ĠRobo":6395,"ĠGenie":6396,"Ġgemeint":6397,"Ġgemeldet":6398,"ĠStepan":6399,"ĠHatten":6400,"ĠAngestell":6401,"Ġziehst":6402,"hoben":6403,"ĠBoot":6404,"zeugen":6405,"fluss":6406,"Ã¤mt":6407,"ĠerfÃ¤hrt":6408,"ĠUntersuch":6409,"Ġsucht":6410,"ontroll":6411,"dreh":6412,"ica":6413,"essert":6414,"ĠAnthon":6415,"ĠdÃ¼rfte":6416,"ĠSeÃ±ora":6417,"akter":6418,"ĠgroÃŁes":6419,"ĠKomisch":6420,"ĠSym":6421,"Ġbetr":6422,"Ġbetrifft":6423,"Ġschafft":6424,"Ġschwere":6425,"Ġfindest":6426,"ĠWelch":6427,"ĠGedanke":6428,"Ġtreten":6429,"Ġnettes":6430,"ĠzwÃ¶lf":6431,"Ġschickte":6432,"ĠTran":6433,"Ġwelcher":6434,"Ġwelches":6435,"ĠKamin":6436,"Ġstarten":6437,"ski":6438,"ĠGarten":6439,"ĠGrab":6440,"Ġfrisch":6441,"ĠGlÃ¤":6442,"ĠhÃ¤ltst":6443,"chtigkeit":6444,"ĠCarol":6445,"ĠFÃ¼ÃŁe":6446,"teilt":6447,"ĠTheor":6448,"ĠGroÃŁvater":6449,"ĠauÃŁerdem":6450,"ĠColetta":6451,"worte":6452,"ĠRegierung":6453,"gaben":6454,"ĠHÃ¶he":6455,"willig":6456,"ĠFotos":6457,"ĠPresse":6458,"Ġliebsten":6459,"Ġbedauer":6460,"Ġerlauben":6461,"porth":6462,"ĠFliegen":6463,"Ġverhaften":6464,"ĠKelly":6465,"ĠSamstag":6466,"ĠzerstÃ¶ren":6467,"ĠPete":6468,"Ġvergesse":6469,"ĠErinnerst":6470,"ĠmerkwÃ¼rd":6471,"Ġschreibe":6472,"ĠÃ¶ffentlich":6473,"ĠBesonderes":6474,"ĠArbeiter":6475,"ĠDrehbuch":6476,"setzung":6477,"ĠInspektor":6478,"ĠInspect":6479,"ĠVentura":6480,"ĠTexas":6481,"ĠUmstÃ¤nde":6482,"ĠFeigling":6483,"Ġgrausam":6484,"Ġriskieren":6485,"hyani":6486,"ĠDiener":6487,"Ġrechnen":6488,"ĠKraw":6489,"ĠtÃ¤glich":6490,"ĠLudwig":6491,"ĠbegrÃ¼ÃŁen":6492,"ĠunglÃ¼cklich":6493,"ĠOzean":6494,"ĠgekÃ¼sst":6495,"ĠPÃ¼ppy":6496,"athemat":6497,"ĠGouverneur":6498,"ĠWiderstand":6499,"ĠGlÃ¼ckwunsch":6500,"ĠVasca":6501,"ĠBatthyani":6502,"Ġabends":6503,"ĠPeyton":6504,"ĠBedeutung":6505,"ĠRoboter":6506,"ĠAnthony":6507,"ĠInspector":6508,"Bahn":6509,"IN":6510,"Im":6511,"ahe":6512,"acken":6513,"bten":6514,"cine":6515,"drÃ¼cken":6516,"druckt":6517,"elle":6518,"gott":6519,"ju":6520,"kett":6521,"maÃī":6522,"que":6523,"rick":6524,"ure":6525,"uche":6526,"vier":6527,"wn":6528,"wan":6529,"wetter":6530,"xis":6531,"Ġarr":6532,"Ġromant":6533,"eres":6534,"ieur":6535,"iegt":6536,"stu":6537,"Ġwild":6538,"ĠSki":6539,"Ġme":6540,"Ġharte":6541,"eisen":6542,"eille":6543,"ĠWit":6544,"ĠWomit":6545,"esch":6546,"ĠMitte":6547,"ĠMos":6548,"ĠMeilen":6549,"Ġeinig":6550,"ĠkÃ¼nd":6551,"Ġknapp":6552,"ĠHann":6553,"ĠHeu":6554,"ĠHitze":6555,"Ġgemal":6556,"Ġgeko":6557,"ĠGit":6558,"Ġunn":6559,"ĠungewÃ¶hn":6560,"ĠBasis":6561,"ĠKing":6562,"ĠKart":6563,"Ġzuk":6564,"ĠFang":6565,"ĠFeld":6566,"schau":6567,"Ġfange":6568,"ĠJess":6569,"ĠLS":6570,"ĠLange":6571,"Ã¼rt":6572,"Ġletztes":6573,"Ġergeben":6574,"ĠerÃ¶ff":6575,"Ġersetzen":6576,"Ġergibt":6577,"Ġschna":6578,"ĠschÃ¤tzen":6579,"ckte":6580,"Ġinform":6581,"Ġintell":6582,"bew":6583,"ĠUt":6584,"ĠRein":6585,"ĠSchnapp":6586,"ĠSchÃ¼ler":6587,"Ġjagen":6588,"Ġwartest":6589,"Ãībst":6590,"Ġtrage":6591,"Ġtolle":6592,"ĠErk":6593,"ĠErinnern":6594,"leg":6595,"Ġbestellen":6596,"Ġbegeist":6597,"etzten":6598,"ĠfÃ¼rchten":6599,"ĠDieb":6600,"Ġausl":6601,"ĠCan":6602,"ĠStierk":6603,"ĠEinladung":6604,"Ã¶rde":6605,"stest":6606,"Ġkannte":6607,"Ġrief":6608,"Ġumgehen":6609,"ĠvorÃ¼ber":6610,"ĠÃ¼berf":6611,"ĠÃ¼berleben":6612,"ĠWarst":6613,"ĠWarden":6614,"ĠHerrgott":6615,"rÃ¼ckten":6616,"iku":6617,"rief":6618,"Ġdennoch":6619,"ĠDax":6620,"gericht":6621,"gerichtet":6622,"Ġhervor":6623,"ĠSpÃ¤ter":6624,"ĠSpuren":6625,"ruben":6626,"ruhen":6627,"ĠGesell":6628,"ĠGesamt":6629,"ĠBez":6630,"ĠWerbe":6631,"Ã¼cke":6632,"zenz":6633,"ĠNichte":6634,"Ġhingehen":6635,"antas":6636,"ĠLieben":6637,"ĠgenÃ¼":6638,"ĠFlur":6639,"Ġstehlen":6640,"keÃī":6641,"ĠzurÃ¼ckge":6642,"ĠVorschlag":6643,"ĠRuh":6644,"ĠunterstÃ¼tzen":6645,"ĠSex":6646,"ĠSechs":6647,"barkeit":6648,"Ġbesseren":6649,"ĠHoffnung":6650,"Ġgetrieben":6651,"ĠgetrÃ¤umt":6652,"ĠKlub":6653,"ĠRoten":6654,"Ġgemerkt":6655,"ĠKosten":6656,"ĠJahres":6657,"ĠÃĮan":6658,"ĠÃĮach":6659,"ĠÃĮoch":6660,"ĠAbschluss":6661,"ĠAbdrÃ¼cke":6662,"ĠDarÃ¼ber":6663,"Ġsagtest":6664,"Ġ35":6665,"ĠMalic":6666,"Ġarbeitest":6667,"Ġarbeitete":6668,"Ġlege":6669,"ĠÃľbr":6670,"merz":6671,"Ġechter":6672,"weder":6673,"Ġangestellt":6674,"fÃ¼hl":6675,"ĠTour":6676,"ĠTodes":6677,"ĠNed":6678,"peratur":6679,"ogna":6680,"ograf":6681,"werke":6682,"ĠYou":6683,"ĠYai":6684,"ĠGewiss":6685,"Ġfliegt":6686,"Ġvertrau":6687,"Ġvertragen":6688,"Ġvertreiben":6689,"ĠAmado":6690,"akten":6691,"Ġaufgegeben":6692,"ĠReisen":6693,"ĠBleibt":6694,"ĠPolizist":6695,"stÃ¤ndnis":6696,"Ġabgeschlossen":6697,"ĠOnkeÃī":6698,"Ġwusstest":6699,"ĠKrieger":6700,"Ġfreiwillig":6701,"ĠGebÃ¤ude":6702,"Ġherauszu":6703,"ĠWorÃ¼ber":6704,"Ġschickt":6705,"ĠGrÃ¼bchen":6706,"ĠGerichtss":6707,"ĠVersteh":6708,"Ġverspr":6709,"ĠGeschÃ¤fts":6710,"Ġverschwunden":6711,"Ġverschwenden":6712,"echseln":6713,"ĠKarl":6714,"ĠUrlaub":6715,"ĠFÃ¼ÃŁen":6716,"ĠSÃ¼ÃŁe":6717,"ĠLeiter":6718,"aiII":6719,"duz":6720,"mittlung":6721,"aubern":6722,"ĠÃīieber":6723,"ĠzufÃ¤llig":6724,"ĠBuchstaben":6725,"ĠFuÃŁkett":6726,"ĠAlexander":6727,"Ġliebte":6728,"ĠEva":6729,"ĠEvans":6730,"dentif":6731,"prop":6732,"ĠRevolution":6733,"ĠTreffen":6734,"Ġunglaublich":6735,"Ġtoller":6736,"Ġtoo":6737,"ĠMcKenzie":6738,"ĠgewÃ¶hn":6739,"ĠvieÃīÃīeicht":6740,"Ġfragst":6741,"ĠJugend":6742,"ĠLaura":6743,"ĠWhiskey":6744,"ĠOlga":6745,"ĠVerdammt":6746,"ĠKompass":6747,"ĠNÃ¤chstes":6748,"ĠOffiziers":6749,"ĠÃ¶fter":6750,"ĠSolange":6751,"ĠPrinzess":6752,"ĠTraudl":6753,"ĠÃ¼berzeugen":6754,"ĠSchauspieler":6755,"Ġverfolgt":6756,"Ġerledigen":6757,"ĠPortier":6758,"ĠBataiII":6759,"ignal":6760,"ĠTausende":6761,"Ġdunkl":6762,"ĠWilson":6763,"ĠLinie":6764,"ĠerfÃ¼llt":6765,"ĠTermin":6766,"ĠÃĮanner":6767,"ĠAbsolut":6768,"ĠSowjetmacht":6769,"ĠAbstimmung":6770,"ĠstÃ¼rzen":6771,"ĠGemeinde":6772,"Ġtanzt":6773,"swert":6774,"ĠMyra":6775,"Ġunwichtig":6776,"ĠEngÃī":6777,"ĠWells":6778,"Ġfinanzieren":6779,"Ġgeschworen":6780,"ĠbÃīeiben":6781,"ĠLÃ¶wen":6782,"ĠZweck":6783,"Ġfriedlich":6784,"Ġersparen":6785,"ĠPetro":6786,"ĠSchicksal":6787,"ĠBrÃ¤utig":6788,"ĠgnÃ¤d":6789,"ĠVillard":6790,"ĠGerÃ¤usch":6791,"ĠTabletten":6792,"ĠJouv":6793,"ĠFÃ¶rster":6794,"ĠKlinik":6795,"ĠEntfernung":6796,"ĠNatalja":6797,"mosphÃ¤re":6798,"ĠAlpenfÃ¼hrer":6799,"Importh":6800,"Ġgemalt":6801,"Ġgekostet":6802,"ĠStierkÃ¤mpfer":6803,"ĠFuÃŁkettchen":6804,"Fl":6805,"bil":6806,"bom":6807,"bons":6808,"fund":6809,"hlich":6810,"ji":6811,"jour":6812,"ky":6813,"kau":6814,"kÃ¼":6815,"kÃ¶pf":6816,"lvia":6817,"lcine":6818,"messen":6819,"opf":6820,"pie":6821,"prechen":6822,"rats":6823,"sg":6824,"ull":6825,"uern":6826,"vent":6827,"yl":6828,"zur":6829,"§ois":6830,"Ã§ois":6831,"ieter":6832,"str":6833,"Ġwinz":6834,"Ġwechseln":6835,"ĠSall":6836,"ĠSetzt":6837,"anÃ§ois":6838,"Ġmin":6839,"Ġmisst":6840,"Ġmindestens":6841,"ĠnÃ¶r":6842,"unst":6843,"geiz":6844,"ĠWichtig":6845,"ĠDick":6846,"ĠDita":6847,"auffe":6848,"ĠItalien":6849,"eserv":6850,"irr":6851,"llos":6852,"Ġbein":6853,"ĠbrÃ¤":6854,"ĠMas":6855,"ĠAben":6856,"ĠAsa":6857,"Ġkochen":6858,"Ġkaufe":6859,"ĠHÃ¶re":6860,"ĠHurra":6861,"ĠHunderte":6862,"Ġgelei":6863,"ĠGlei":6864,"ĠGÃ¶t":6865,"Ġzit":6866,"Ġzeigt":6867,"Ġzahle":6868,"itÃ¤r":6869,"ĠBak":6870,"ĠBurg":6871,"ĠKid":6872,"ĠKeinen":6873,"ĠKenny":6874,"ĠKabine":6875,"ĠFla":6876,"ĠFlo":6877,"ĠFangen":6878,"ĠFunk":6879,"ĠFÃ¤lle":6880,"Ġgolden":6881,"schritte":6882,"ĠJenn":6883,"ĠLÃ¼ge":6884,"Ġlm":6885,"Ġlangen":6886,"ĠschÃ¤men":6887,"elche":6888,"ĠTiere":6889,"urer":6890,"Ġverurs":6891,"ckst":6892,"ĠPassen":6893,"ĠPulver":6894,"ĠVir":6895,"ĠVÃ¶llig":6896,"ĠRang":6897,"ĠRiv":6898,"ĠScheint":6899,"ĠSchauen":6900,"Ġtreibt":6901,"ĠUnge":6902,"ĠUnsch":6903,"ament":6904,"ĠErgeb":6905,"leum":6906,"ĠZent":6907,"ĠZirkus":6908,"ĠOs":6909,"servat":6910,"ĠDulcine":6911,"Ġdavor":6912,"isation":6913,"ismus":6914,"ĠCogna":6915,"ĠSteine":6916,"ĠStill":6917,"ĠStimmung":6918,"ĠEinverstanden":6919,"achtung":6920,"Ã¶rter":6921,"stelle":6922,"ĠAnw":6923,"ĠAnweis":6924,"ilien":6925,"ome":6926,"ĠHerrin":6927,"Ã¤tigen":6928,"ktlich":6929,"otter":6930,"laus":6931,"Ġwozu":6932,"Ġregeln":6933,"Ġliest":6934,"Ġliebes":6935,"Ġabstimmen":6936,"ĠSpielen":6937,"ĠSpaz":6938,"Ġanderem":6939,"Ġwiederzu":6940,"Ġdaraus":6941,"spielen":6942,"spannen":6943,"ingst":6944,"herr":6945,"ĠRegeln":6946,"Ġhinauf":6947,"Ġhinweg":6948,"Ã¼nktlich":6949,"Ġbrauchten":6950,"ĠFranÃ§ois":6951,"ĠgeschÃ¤ft":6952,"Ġselben":6953,"ĠRuhig":6954,"ĠMitleid":6955,"haar":6956,"ĠWeib":6957,"ĠGeldes":6958,"angenehm":6959,"essel":6960,"Ġsicherer":6961,"ĠGeschÃ¤":6962,"ĠChauffe":6963,"ĠKleinen":6964,"ĠGrant":6965,"Ã¼tter":6966,"ĠPfad":6967,"ĠRobby":6968,"ĠgemÃ¼t":6969,"ordnung":6970,"ĠOrden":6971,"ĠSchluck":6972,"ĠEntl":6973,"klagen":6974,"Ġruh":6975,"ĠNacho":6976,"Ġeinfacher":6977,"ĠZuerst":6978,"ĠFreundschaft":6979,"Ġneugierig":6980,"Ġhohen":6981,"ĠBerlin":6982,"Ġwenige":6983,"Ġobwohl":6984,"schaften":6985,"ĠAngela":6986,"ĠAngelo":6987,"zeigt":6988,"ĠBou":6989,"ĠToilette":6990,"ĠÃľberhaupt":6991,"ibir":6992,"Ġtrink":6993,"Ġerfor":6994,"Ġkonntest":6995,"plan":6996,"ĠUnterricht":6997,"ĠLandung":6998,"Ġsolcher":6999,"Ġleise":7000,"Ġlebend":7001,"ĠBisbee":7002,"Ġverhei":7003,"Ġverhindern":7004,"ĠLuftpost":7005,"ĠSylvia":7006,"Ġbezahle":7007,"ington":7008,"errt":7009,"Ġschaffe":7010,"ĠKanada":7011,"Ġherausfinden":7012,"Ġeinzig":7013,"Ã©e":7014,"ĠtÃ¶te":7015,"ĠTrÃ¤nen":7016,"Ġbrennen":7017,"ĠnÃ¤chstes":7018,"ĠNeufund":7019,"ĠRichtige":7020,"ĠSchlosses":7021,"ĠThorn":7022,"ĠWochenende":7023,"Ġkomp":7024,"ĠSchweigen":7025,"ĠCarter":7026,"ancen":7027,"Ġerwischt":7028,"ĠGroÃŁartig":7029,"ĠKontroll":7030,"ĠkÃ¤mpft":7031,"ĠHÃ¶schen":7032,"ĠHeiligen":7033,"ĠHeiliger":7034,"ĠKrim":7035,"ĠPassag":7036,"ĠAmerika":7037,"ĠEnglish":7038,"ĠFrÃ¼h":7039,"Ġfolgt":7040,"ĠIrgendwas":7041,"ĠRevolver":7042,"Ġertragen":7043,"ĠgewÃ¶hnen":7044,"ĠStella":7045,"Ġherrschen":7046,"ĠSpanier":7047,"Ġverabredet":7048,"zinieren":7049,"prÃ¼ft":7050,"Ġroten":7051,"ĠSonnemann":7052,"ĠIdioten":7053,"ĠNÃ¤chste":7054,"ĠmerkwÃ¼rdig":7055,"ĠNichols":7056,"ĠSchreib":7057,"prÃ¤sident":7058,"ĠRussland":7059,"ĠNordhaus":7060,"ĠNordhause":7061,"Ġgezwungen":7062,"Ġglatt":7063,"ĠMoritz":7064,"ĠzugehÃ¶rt":7065,"ĠBonjour":7066,"ĠerklÃ¤re":7067,"Ġschulden":7068,"ĠWurden":7069,"ĠPalm":7070,"ĠRausch":7071,"ĠKamera":7072,"bildung":7073,"ĠUSA":7074,"mÃ¤ÃŁig":7075,"ĠKommunisten":7076,"ĠRaketen":7077,"ĠSilik":7078,"Ġbeobachtet":7079,"Ġdankbar":7080,"ĠMexiko":7081,"ĠSzene":7082,"Ġnirgendwo":7083,"ĠKrÃ¤mer":7084,"ĠBlair":7085,"ĠLehrer":7086,"ĠPraxis":7087,"ĠSprings":7088,"wendig":7089,"Ġelektron":7090,"behÃ¶rde":7091,"ĠPosition":7092,"ĠMayhew":7093,"ĠMethode":7094,"jenigen":7095,"ĠKollegen":7096,"ĠVizeprÃ¤sident":7097,"ĠQuijote":7098,"ĠMeteor":7099,"Ġhungrig":7100,"ĠCafÃ©":7101,"ĠGlÃ¤ser":7102,"Ġarrang":7103,"ĠWitwe":7104,"ĠMoskau":7105,"ĠzukÃ¼nft":7106,"Ġbegeistert":7107,"ikuyu":7108,"antasie":7109,"ĠÃľbrigens":7110,"ĠPrinzessin":7111,"ĠBrÃ¤utigam":7112,"ĠAsaji":7113,"ĠDulcinea":7114,"ĠCognac":7115,"ĠChauffeur":7116,"ĠNeufundland":7117,"ĠThornton":7118,"15":7119,"Ison":7120,"ael":7121,"band":7122,"boso":7123,"cag":7124,"eau":7125,"gust":7126,"hÃī":7127,"hÃ¤lter":7128,"ip":7129,"isen":7130,"imen":7131,"jÃ¤ger":7132,"kes":7133,"luss":7134,"nant":7135,"ober":7136,"ped":7137,"path":7138,"rennt":7139,"sd":7140,"sal":7141,"th":7142,"ti":7143,"uge":7144,"uÃīd":7145,"wur":7146,"yd":7147,"zung":7148,"zÃ¼ndung":7149,"Ġeh":7150,"ĠÃ¤u":7151,"ĠÃ¤lter":7152,"chtet":7153,"Ġdienen":7154,"insp":7155,"ieden":7156,"ĠsaÃŁ":7157,"stadt":7158,"Ġwomit":7159,"ĠSeil":7160,"ĠSuch":7161,"ĠSamm":7162,"ĠSay":7163,"ĠSendung":7164,"Ġmie":7165,"unnen":7166,"Ġheil":7167,"Ġhasst":7168,"Ġhundert":7169,"gebr":7170,"ĠWÃ¶rter":7171,"ĠDach":7172,"ĠDinger":7173,"aure":7174,"ese":7175,"irren":7176,"ary":7177,"ĠMm":7178,"ĠMs":7179,"ĠMul":7180,"ĠAÃīÃīe":7181,"Ã¤chen":7182,"ĠHam":7183,"ĠHÃ¼gel":7184,"ĠHemd":7185,"Ġgepackt":7186,"Ġgezeigt":7187,"ĠGul":7188,"ĠGuter":7189,"Ġunbes":7190,"Ġzahlt":7191,"ĠBonn":7192,"ĠBai":7193,"ĠByr":7194,"ĠNell":7195,"ĠNov":7196,"ĠKur":7197,"ĠKwa":7198,"ĠKikuyu":7199,"mmel":7200,"ĠFan":7201,"ĠFast":7202,"ĠFinden":7203,"ĠFertig":7204,"ĠFakten":7205,"Ġgucken":7206,"scheu":7207,"schri":7208,"schicken":7209,"Ġfeuern":7210,"ĠLog":7211,"Ġln":7212,"ĠlÃ¤":7213,"Ġwirkt":7214,"Ġschar":7215,"Ġschmerz":7216,"rel":7217,"ĠTenn":7218,"ĠTick":7219,"ĠTant":7220,"Ġverwei":7221,"Ġverschieden":7222,"ckel":7223,"ĠPunk":7224,"ĠVan":7225,"ĠVÃ¤ter":7226,"igstens":7227,"beg":7228,"Ġand":7229,"utieren":7230,"utnant":7231,"uma":7232,"umor":7233,"atter":7234,"attet":7235,"atze":7236,"ĠSchaden":7237,"ĠSchlecht":7238,"Ġwarnen":7239,"Ãīassen":7240,"Ãīikationen":7241,"amour":7242,"ĠErl":7243,"lege":7244,"rauisch":7245,"ĠZwill":7246,"ĠWirt":7247,"sent":7248,"Ġwaschen":7249,"Ġausf":7250,"Ġausruhen":7251,"ĠStab":7252,"ĠStÃ¶rung":7253,"Ġoh":7254,"Ġober":7255,"ĠVerÃī":7256,"Ġihres":7257,"ĠAnfÃ¼hrer":7258,"immst":7259,"Ġmussen":7260,"ĠprÃ¼":7261,"Ġpsych":7262,"reift":7263,"Ġstra":7264,"Ġsteigt":7265,"Ġrechten":7266,"Ġgesetzt":7267,"assy":7268,"ĠInteressant":7269,"Ġherauf":7270,"Ġbesucht":7271,"ĠAlan":7272,"locken":7273,"ĠwÃ¼rd":7274,"Ġvieles":7275,"ĠÃīos":7276,"ĠÃīhnen":7277,"Ġhinzu":7278,"rÃ¤umen":7279,"abdrÃ¼cke":7280,"Ġgewinnt":7281,"Ġglaubte":7282,"imaterie":7283,"ĠgefÃ¼hrt":7284,"ĠAufmerksam":7285,"Ġstehe":7286,"Ã¼nden":7287,"ĠFris":7288,"adel":7289,"versuch":7290,"artige":7291,"Ġuntersucht":7292,"ĠSekt":7293,"Ġgerufen":7294,"Ġgerechnet":7295,"ĠGran":7296,"Ġschwimmen":7297,"Ġberaten":7298,"Ġberuhigen":7299,"Ã¼ttert":7300,"ĠAllein":7301,"klagt":7302,"Ã¤chst":7303,"ĠMendel":7304,"ĠKoI":7305,"ĠÃĮeine":7306,"aschka":7307,"Ã¤uf":7308,"Ġhalbes":7309,"ĠNachdem":7310,"ĠZucker":7311,"ĠBlÃ¶dsinn":7312,"ahÃīt":7313,"ĠPlÃ¤tze":7314,"Ġ36":7315,"igerweise":7316,"ĠBereit":7317,"ĠParfÃ¼":7318,"ĠAuskunft":7319,"ĠfÃ¼hre":7320,"Ġirr":7321,"Ġangeht":7322,"Ġangebracht":7323,"ĠLebe":7324,"ĠToboso":7325,"ĠDankbarkeit":7326,"ĠMireille":7327,"ĠFallschirm":7328,"dio":7329,"Ġwundern":7330,"plom":7331,"Ġausgest":7332,"ĠUnterhalt":7333,"ĠWillard":7334,"ĠvollstÃ¤ndig":7335,"ict":7336,"recke":7337,"ĠAntimaterie":7338,"ĠÃĦh":7339,"ĠSeÃ±orita":7340,"ĠExpresso":7341,"ĠDecke":7342,"ĠaufgehÃ¶rt":7343,"ĠElf":7344,"Ġ45":7345,"ĠAutom":7346,"ĠIdeen":7347,"ĠWelcher":7348,"Ġvermass":7349,"Ġvermute":7350,"Ġvermeiden":7351,"Ġvermisst":7352,"ĠKÃ¶nigliche":7353,"ĠMordes":7354,"Ġwichtiger":7355,"Ġwelchen":7356,"phie":7357,"Ġenden":7358,"Ġvergisst":7359,"ĠSeitdem":7360,"Ġschlechtes":7361,"Ġverschwand":7362,"waltung":7363,"ĠKugeln":7364,"ĠSchuh":7365,"Ġfluss":7366,"ĠCarcag":7367,"ancer":7368,"ĠPercy":7369,"ĠSuchen":7370,"ĠKonto":7371,"ĠKontrolle":7372,"Ġdumme":7373,"ĠJuliane":7374,"ĠAussagen":7375,"ĠMault":7376,"ĠWenigstens":7377,"Ġseltsamer":7378,"itekt":7379,"ĠEngland":7380,"ĠPuppe":7381,"ĠFrÃ¼her":7382,"ĠGeheimdienst":7383,"ĠEinsatz":7384,"ĠAdler":7385,"Ġgespannt":7386,"ĠBÃ¶se":7387,"ĠLaurel":7388,"Ġherrscht":7389,"ĠAkte":7390,"packen":7391,"ĠverÃīiebt":7392,"Ġregnet":7393,"ĠKompÃīikationen":7394,"ĠNaturÃīich":7395,"ĠkÃīein":7396,"ĠBerghÃ¼tte":7397,"Ġstoppen":7398,"ĠPistolen":7399,"ĠArbeiten":7400,"Ġperfekte":7401,"Ġworauf":7402,"ĠVieh":7403,"setzlich":7404,"ĠerfÃ¼llen":7405,"Ã¼nstler":7406,"ĠNichoIson":7407,"ĠSkandal":7408,"ĠAfrika":7409,"ĠaÃīso":7410,"ĠStaatsanwalt":7411,"ĠJapaner":7412,"ĠRakete":7413,"Ġkosten":7414,"ĠLomax":7415,"Ġschlafe":7416,"Ġruinieren":7417,"Ġbestimmte":7418,"ĠHÃ¼hn":7419,"ĠElektron":7420,"ĠfranzÃ¶sischen":7421,"ĠZÃ¤hne":7422,"ĠenttÃ¤uscht":7423,"ĠCowboy":7424,"ĠGÃīas":7425,"ĠShahd":7426,"ĠArgumente":7427,"Ġangenehm":7428,"Ġberuhigt":7429,"ĠScotch":7430,"ĠTrotzdem":7431,"Ġverschafft":7432,"ĠWaller":7433,"ĠSchÃ¤tzchen":7434,"Ġbegegnen":7435,"ĠSauerbier":7436,"ĠDutzend":7437,"ĠschneÃīÃī":7438,"Ġaufgeregt":7439,"ĠBernadette":7440,"ĠHonor":7441,"ĠStreet":7442,"ĠParfum":7443,"ĠSprechstunden":7444,"ĠFrechheit":7445,"ĠCaroline":7446,"Ġschnappen":7447,"ĠSchnappmesser":7448,"ĠGesellschaft":7449,"ĠBataiIIon":7450,"ĠOscar":7451,"inspektor":7452,"ĠGulasch":7453,"ĠBonnard":7454,"ĠBailey":7455,"ĠByrd":7456,"schriften":7457,"ĠTantchen":7458,"ĠAufmerksamkeit":7459,"ĠParfÃ¼m":7460,"ĠCarcagne":7461,"ĠShahdov":7462,"AL":7463,"Fr":7464,"ON":7465,"Un":7466,"burger":7467,"din":7468,"dlicher":7469,"dhof":7470,"ew":7471,"feuer":7472,"gfeld":7473,"heil":7474,"holz":7475,"iÃŁ":7476,"ipp":7477,"iffe":7478,"kann":7479,"lor":7480,"lÃ¤sst":7481,"lub":7482,"morgen":7483,"pause":7484,"reter":7485,"ricks":7486,"seit":7487,"seite":7488,"treiben":7489,"wacht":7490,"wochen":7491,"zum":7492,"ietet":7493,"Ġsau":7494,"Ġseht":7495,"Ġwa":7496,"Ġwhen":7497,"ĠSach":7498,"ĠSucht":7499,"ĠSheriff":7500,"Ġnass":7501,"Ġhandeln":7502,"gefÃ¼hl":7503,"eider":7504,"ĠWal":7505,"ĠWol":7506,"ĠWÃ¤r":7507,"ĠWrack":7508,"ĠDel":7509,"ĠDur":7510,"Ġidentif":7511,"aug":7512,"aubt":7513,"ĠIll":7514,"irektor":7515,"teur":7516,"ĠMhm":7517,"ĠMaus":7518,"ĠAmen":7519,"Ġkor":7520,"Ġkind":7521,"ĠkrÃ¤":7522,"Ã¤rin":7523,"onie":7524,"ĠHÃ¤u":7525,"ĠHend":7526,"ĠHugh":7527,"ĠHumor":7528,"Ġgelaufen":7529,"ĠGet":7530,"ĠGÃ¼r":7531,"ĠGÃ¼tiger":7532,"iting":7533,"itha":7534,"ĠBa":7535,"ĠBot":7536,"ĠBalt":7537,"ĠBay":7538,"ĠBanken":7539,"ĠBloÃŁ":7540,"ĠKÃ¼ss":7541,"ĠKaut":7542,"ĠKurz":7543,"ala":7544,"Ġzugeben":7545,"ĠFrack":7546,"ĠFleisch":7547,"Ġgr":7548,"Ġgrauen":7549,"schmer":7550,"schreiben":7551,"Ġfind":7552,"bericht":7553,"bergen":7554,"ĠLath":7555,"ĠLhre":7556,"ĠLÃ©on":7557,"Ġlinken":7558,"Ġlanger":7559,"ssy":7560,"Ġschrieb":7561,"ela":7562,"ĠTem":7563,"ĠTÃ¤n":7564,"ĠTher":7565,"ĠTrib":7566,"Ġverhalten":7567,"ĠverÃ¤ndern":7568,"ĠverprÃ¼":7569,"ĠPy":7570,"ĠVort":7571,"igten":7572,"best":7573,"Ġanvert":7574,"utage":7575,"attel":7576,"ennett":7577,"agte":7578,"ĠRho":7579,"ĠReiten":7580,"ĠSchein":7581,"ĠSchÃ¼tzen":7582,"ĠSchieÃŁ":7583,"Ġaufstehen":7584,"Ġteil":7585,"ĠUngefÃ¤hr":7586,"ĠErsatz":7587,"ĠErwachsen":7588,"eitag":7589,"lex":7590,"ĠZunge":7591,"ĠZeig":7592,"Ġbeun":7593,"Ġbegehen":7594,"Ġgeho":7595,"etzung":7596,"roht":7597,"isieren":7598,"ĠStil":7599,"ĠStimmen":7600,"rÃ¼ÃŁt":7601,"Ġopf":7602,"Ġoffiz":7603,"ĠVerge":7604,"ĠVermittlung":7605,"ĠAnscheinend":7606,"ĠAugust":7607,"omp":7608,"oment":7609,"rinkt":7610,"Ġnachher":7611,"ĠpÃ¼nktlich":7612,"anzos":7613,"ĠkÃ¶nne":7614,"ĠÃ¼berlassen":7615,"ĠGebt":7616,"waschen":7617,"Ġstart":7618,"ĠstÃ¶re":7619,"Ġstinken":7620,"ĠWow":7621,"ĠweiÃŁe":7622,"ĠHerrschaften":7623,"adies":7624,"ĠHafen":7625,"Ġabreisen":7626,"ĠabschlieÃŁen":7627,"ĠSpir":7628,"ĠArr":7629,"ĠArmer":7630,"Ġwiedersehen":7631,"rufe":7632,"herz":7633,"angs":7634,"Ġbittet":7635,"ickeln":7636,"Ġhinge":7637,"Ġgewisse":7638,"imore":7639,"ĠLieder":7640,"Ġheimlich":7641,"ĠFlitter":7642,"ĠgefÃ¼":7643,"Ġgefasst":7644,"ĠAufre":7645,"ĠzurÃ¼ckzu":7646,"ĠzurÃ¼ckkommt":7647,"ĠZeitungen":7648,"ĠKomme":7649,"ĠKommerz":7650,"ĠNap":7651,"Ġverliere":7652,"ĠVors":7653,"ĠVorsitzen":7654,"ĠProben":7655,"Ġsicherlich":7656,"Ġgeritten":7657,"samt":7658,"Ġgetrennt":7659,"ĠGeschmack":7660,"Ġarmer":7661,"Ġweitergehen":7662,"ĠMary":7663,"Ġzweiter":7664,"Ġzweimal":7665,"Ġrausge":7666,"ĠStehen":7667,"ĠSteuer":7668,"ĠDenke":7669,"ĠKosche":7670,"ĠBlume":7671,"warmer":7672,"ĠJeky":7673,"Ġ31":7674,"ĠBeruhigen":7675,"nappt":7676,"Ġwahre":7677,"ĠKindheit":7678,"Ġanget":7679,"Ġangesehen":7680,"Ġbestehen":7681,"Ġbestraft":7682,"ĠHaushÃ¤lter":7683,"Ġmorgens":7684,"ĠNee":7685,"ĠFlugzeuge":7686,"schieÃŁen":7687,"Ġversuchte":7688,"flÃ¼ss":7689,"Ġbefindet":7690,"kommando":7691,"Ġbegraben":7692,"Ġeingeschlafen":7693,"Ġrichtiger":7694,"Ġsolch":7695,"Ġirgendein":7696,"ĠWaisen":7697,"Ġbeschw":7698,"worth":7699,"Ġ500":7700,"Ġverhung":7701,"kaja":7702,"ĠDeckung":7703,"ĠHandt":7704,"ĠKomiker":7705,"urteilt":7706,"ĠAutor":7707,"ĠverdÃ¤chtig":7708,"ĠIrren":7709,"ĠMadam":7710,"utzutage":7711,"Ġabgemacht":7712,"ĠServ":7713,"ĠgekÃ¤mpft":7714,"Ġentschlossen":7715,"Ġentschuldigt":7716,"Ġverkaufe":7717,"ĠTricks":7718,"ĠZiegfeld":7719,"ĠZeuge":7720,"ĠAthen":7721,"legenheit":7722,"ĠWeihnachts":7723,"ĠVergangen":7724,"ĠStrafe":7725,"ĠblÃ¶":7726,"ĠThema":7727,"Ġleichter":7728,"ĠObwohl":7729,"ĠerkÃ¤l":7730,"ĠPartei":7731,"ĠSprache":7732,"ĠhÃ¼bsche":7733,"ĠLois":7734,"ĠCharakter":7735,"ĠKnochen":7736,"Ġerschreckt":7737,"ĠKÃ¼ssen":7738,"ĠKÃ¼mmer":7739,"Ġerleben":7740,"ĠauÃŁerhalb":7741,"obil":7742,"wortet":7743,"ĠZumindest":7744,"ĠkÃ¤mpf":7745,"duktion":7746,"Ġaussagen":7747,"Ġ75":7748,"ĠLong":7749,"Ġheiratet":7750,"ĠTypen":7751,"ĠhÃ¼bscher":7752,"itee":7753,"ĠÃ¼bl":7754,"ĠBestand":7755,"Ġversetzen":7756,"ĠSalgado":7757,"ĠDrinks":7758,"Ġnebenan":7759,"ĠHÃ¤ttest":7760,"ĠTreue":7761,"Ġertrage":7762,"getan":7763,"ĠAdieu":7764,"ĠKapit":7765,"ĠVerlob":7766,"ĠKimball":7767,"schneiden":7768,"Ġregul":7769,"ĠFolgen":7770,"ĠZelle":7771,"ĠVerdamm":7772,"venue":7773,"ĠAuftritt":7774,"flugzeug":7775,"ĠErinnerung":7776,"ĠMode":7777,"ĠMount":7778,"ĠTimbu":7779,"Ġumgekehrt":7780,"Ã¤ssig":7781,"ĠÃ¼bertrieben":7782,"Ġtrennen":7783,"sidenten":7784,"kriegen":7785,"Ġdoppelt":7786,"ĠBatter":7787,"ction":7788,"ĠVentil":7789,"ĠWurde":7790,"ĠlÃ¼gst":7791,"Ġklappt":7792,"Ġehrenwerter":7793,"ĠgrÃ¶ÃŁten":7794,"ĠFremde":7795,"ĠPlattenfirma":7796,"ĠUmstÃ¤nden":7797,"Ġbehaupten":7798,"ĠOhrf":7799,"ĠDeutsch":7800,"ĠWohnzimmer":7801,"fÃ¼hrung":7802,"Ġschmutzig":7803,"ĠFlÃ¼geln":7804,"ĠtÃ¶richt":7805,"Ġbeeindruckt":7806,"ĠbÃ¶ses":7807,"ĠHilfssheriffs":7808,"Maria":7809,"ĠBananen":7810,"Ġlangweilig":7811,"Ġschaffst":7812,"ĠKiste":7813,"ĠRittmeister":7814,"ĠErfindung":7815,"ĠAllerdings":7816,"ĠBalkon":7817,"ĠLÃ¤cheln":7818,"Ġerstaunliche":7819,"ĠSekretÃ¤rin":7820,"Ġgratuliere":7821,"Ġgeplant":7822,"ĠArchitekt":7823,"ĠLohngelder":7824,"gÃ¼ltig":7825,"ĠEskim":7826,"ĠTheorie":7827,"Ġintelligent":7828,"ĠUtica":7829,"ĠSally":7830,"Ġbeinahe":7831,"servatorium":7832,"ĠAnwÃ¤lte":7833,"ĠAnweisungen":7834,"Ġwiederzusehen":7835,"ĠGeschÃ¤fte":7836,"imente":7837,"pedition":7838,"ĠHamlet":7839,"ĠSprechstundenhilfe":7840,"Franzos":7841,"ĠHendricks":7842,"ĠGÃ¼rtel":7843,"ĠBaltimore":7844,"ĠKaution":7845,"schmerzen":7846,"ĠLathela":7847,"ĠFlitterwochen":7848,"ĠJekyll":7849,"Franzosisch":7850,"%.":7851,"40":7852,"ac":7853,"affen":7854,"bra":7855,"bart":7856,"bacher":7857,"cqu":7858,"drÃ¼ckt":7859,"diker":7860,"eich":7861,"fa":7862,"fertig":7863,"freu":7864,"gn":7865,"gil":7866,"gab":7867,"gramm":7868,"gruppe":7869,"iI":7870,"ian":7871,"iam":7872,"jagt":7873,"kr":7874,"kamen":7875,"kÃ¤se":7876,"lern":7877,"mahl":7878,"mine":7879,"mod":7880,"oÃŁ":7881,"pot":7882,"ral":7883,"rige":7884,"rale":7885,"sagen":7886,"sagt":7887,"sack":7888,"uis":7889,"uste":7890,"uchte":7891,"wÃ¤":7892,"wind":7893,"yal":7894,"Ġon":7895,"Ġelen":7896,"chin":7897,"ener":7898,"enken":7899,"enager":7900,"Ġsy":7901,"Ġsan":7902,"Ġseh":7903,"Ġsinge":7904,"stru":7905,"stab":7906,"Ġwein":7907,"Ġweht":7908,"Ġweshalb":7909,"ĠwÃ¤hlen":7910,"ĠSicht":7911,"ĠSher":7912,"ĠSegen":7913,"ĠSah":7914,"ĠSwa":7915,"ĠSue":7916,"ĠSusi":7917,"anad":7918,"anlage":7919,"Ġnenne":7920,"unken":7921,"Ġheben":7922,"Ġhim":7923,"geÃī":7924,"gese":7925,"gesehen":7926,"eiÃī":7927,"eise":7928,"ĠDI":7929,"ĠDat":7930,"ĠDro":7931,"ĠDandy":7932,"aud":7933,"Ã¼hen":7934,"Ġbau":7935,"ari":7936,"arben":7937,"ĠMes":7938,"ĠEim":7939,"ĠAÃī":7940,"ĠAper":7941,"Ġkauft":7942,"ĠkÃ¤me":7943,"Ġkontroll":7944,"Ã¤ten":7945,"Ã¤le":7946,"ĠHeld":7947,"ĠGu":7948,"ĠGaun":7949,"ĠGÃ©r":7950,"Ġziel":7951,"Ġzog":7952,"Ġzerr":7953,"ĠzÃ¤hlt":7954,"its":7955,"itif":7956,"ĠBÃ¶r":7957,"ĠBlau":7958,"ĠBarr":7959,"ĠBeinen":7960,"ĠBauer":7961,"ĠBix":7962,"ĠBridge":7963,"ĠNetter":7964,"ĠKunden":7965,"alarm":7966,"ĠFI":7967,"ĠFindest":7968,"ĠFuchs":7969,"ĠgÃ¤":7970,"schrank":7971,"schollen":7972,"ĠfÃ¶r":7973,"dero":7974,"ĠLach":7975,"Ġerhe":7976,"ĠschÃīe":7977,"ĠschrÃ¤ger":7978,"ĠaÃīt":7979,"elte":7980,"Ġsoweit":7981,"ĠTin":7982,"ĠTah":7983,"ĠTasse":7984,"ĠTief":7985,"Ġverschl":7986,"ĠPed":7987,"ĠPenner":7988,"igo":7989,"igste":7990,"atzen":7991,"ĠReit":7992,"ĠRol":7993,"ĠRosÃ©":7994,"ĠJacqu":7995,"ĠSchrift":7996,"Ġaufstellen":7997,"Ãīten":7998,"Ġtie":7999,"ĠUnbe":8000,"ĠUnver":8001,"ĠUnrecht":8002,"amten":8003,"amber":8004,"ampf":8005,"ĠErn":8006,"ĠErpress":8007,"ehre":8008,"ĠZwie":8009,"Ġbeeil":8010,"ĠOsten":8011,"ĠgehÃ¶re":8012,"Ġdazwischen":8013,"Ġdadurch":8014,"rakt":8015,"ĠStolz":8016,"ĠStaub":8017,"ĠEinw":8018,"ĠweiÃī":8019,"ĠVerein":8020,"ĠVerfÃ¼":8021,"hlberg":8022,"ielten":8023,"ĠAnsicht":8024,"ĠAnkunft":8025,"Ġumsehen":8026,"Ġumson":8027,"Ġumziehen":8028,"ĠHermel":8029,"Ġpolit":8030,"entzÃ¼ndung":8031,"ĠÃ¼bers":8032,"ĠÃ¼berfahren":8033,"ĠÃ¼berlebt":8034,"otion":8035,"reibst":8036,"reife":8037,"Ġbeibringen":8038,"Ġsprengen":8039,"ulou":8040,"ahre":8041,"weite":8042,"adron":8043,"Ġregen":8044,"ĠlieÃŁen":8045,"ĠDamm":8046,"ĠInsel":8047,"ĠInuis":8048,"Ġabnehmen":8049,"gerÃ¤t":8050,"Ġbesorgen":8051,"lapp":8052,"neten":8053,"ĠSpe":8054,"ĠSpren":8055,"ĠAlbt":8056,"igend":8057,"ĠÃīe":8058,"ĠBeeilen":8059,"eidet":8060,"abot":8061,"Ġgewissen":8062,"Ġgewiss":8063,"ienrat":8064,"ĠLies":8065,"ĠgenÃ¼gen":8066,"ĠFlucht":8067,"ĠgefÃ¤llig":8068,"ĠhÃ¤tt":8069,"ĠFred":8070,"Ġgeschossen":8071,"adeÃīs":8072,"Ġverlasse":8073,"ĠManche":8074,"ĠProp":8075,"onna":8076,"essa":8077,"samkeit":8078,"asta":8079,"astisch":8080,"ĠChatt":8081,"ĠChamber":8082,"ĠKlienten":8083,"Ġberichtet":8084,"suche":8085,"ĠRobert":8086,"ĠSchwadron":8087,"ĠEntde":8088,"ĠEntweder":8089,"klus":8090,"ella":8091,"ĠÃĮadeÃīs":8092,"Ã¤ub":8093,"Ġhalben":8094,"Ġhaltet":8095,"ĠZuhause":8096,"ĠBlond":8097,"cktail":8098,"Ġpassierte":8099,"ĠAusge":8100,"Ġangefangen":8101,"ĠBesorg":8102,"schlÃ¤ge":8103,"ĠLebt":8104,"ational":8105,"ĠBeide":8106,"reiche":8107,"idlapp":8108,"Ġfreie":8109,"echan":8110,"boden":8111,"Ġwundervolle":8112,"oga":8113,"ografen":8114,"ĠHeb":8115,"ĠHex":8116,"Ġausget":8117,"Ġeingesetzt":8118,"ĠUnterst":8119,"ĠLandes":8120,"ĠBrunnen":8121,"ĠerzÃ¤hlte":8122,"Ġleitet":8123,"icity":8124,"Ġgelungen":8125,"ĠLazar":8126,"ĠAmor":8127,"Ġbehalte":8128,"besitzer":8129,"ehnsucht":8130,"Ġruntergehen":8131,"Ġerwartest":8132,"eistung":8133,"Ġverdien":8134,"ĠglÃ¼cklicher":8135,"ĠhÃ¶rten":8136,"Ãīiche":8137,"ĠTeenager":8138,"ĠtÃ¶tete":8139,"wÃ¼rfe":8140,"Ġwichtigste":8141,"ĠGerichts":8142,"ĠPierce":8143,"Ġbrachten":8144,"ĠMÃ¼ssen":8145,"ĠMÃ¼hlberg":8146,"ĠAtmosphÃ¤re":8147,"Ġprobieren":8148,"Ġproduz":8149,"Ġdeut":8150,"Ġdefin":8151,"ĠGardero":8152,"geschÃ¤ft":8153,"ĠWatusi":8154,"ĠPeggy":8155,"ĠQual":8156,"Ġverschwindet":8157,"Ġjederzeit":8158,"ĠBefehls":8159,"ĠerkÃī":8160,"ĠLoulou":8161,"ĠSchweig":8162,"ĠCarlos":8163,"anca":8164,"ĠKÃ¼ste":8165,"ĠKÃ¼hl":8166,"owitsch":8167,"Ġbelag":8168,"ĠDiesmal":8169,"ĠVerbrecher":8170,"Ġschlief":8171,"ĠHÃ¶lle":8172,"eignet":8173,"arbeiter":8174,"ĠTatsache":8175,"ĠKrit":8176,"Ġ192":8177,"ĠMauern":8178,"Ġextra":8179,"ĠHeirat":8180,"ixen":8181,"Ã¡ssy":8182,"Ġeurem":8183,"ĠSalut":8184,"Ġ90":8185,"ĠMutti":8186,"ĠRevier":8187,"ĠRevue":8188,"ĠBraves":8189,"ĠPlains":8190,"portiert":8191,"ĠNÃ¤chte":8192,"ĠPersonen":8193,"ĠVinzenz":8194,"ĠAdolph":8195,"ĠKutscher":8196,"ĠtrÃ¤umen":8197,"ĠGefangene":8198,"Ġmochten":8199,"Ġnahmen":8200,"ĠTeewarmer":8201,"Ġallerdings":8202,"ĠFolge":8203,"ĠSchulter":8204,"Ġrote":8205,"ĠSeeburger":8206,"ĠLucie":8207,"Ġschreien":8208,"ĠSchreien":8209,"ĠInformation":8210,"grunde":8211,"ĠSolche":8212,"ĠkÃīeine":8213,"ĠSchmidlapp":8214,"Ġtauschen":8215,"ĠAndrÃ©e":8216,"ĠAndrassy":8217,"ĠÃ¼brigens":8218,"ĠGeschenke":8219,"ĠFingerabdrÃ¼cke":8220,"Ġbegleite":8221,"krieg":8222,"ĠFerien":8223,"ĠHarv":8224,"Ġstudieren":8225,"ĠPrÃ¤sidenten":8226,"Ġriechen":8227,"ĠSandschollen":8228,"ĠGerechtigkeit":8229,"ĠEhrlich":8230,"ĠBadezimmer":8231,"ĠBademantel":8232,"ĠPeterson":8233,"ĠBaumst":8234,"Ã¶stlich":8235,"ĠKerle":8236,"ĠPublicity":8237,"ossaI":8238,"ĠAbgemacht":8239,"ĠMariechen":8240,"anooga":8241,"ĠerzÃ¤hle":8242,"ĠschieÃŁt":8243,"ĠgehÃ¶rst":8244,"helden":8245,"ĠSchwiegermutter":8246,"ĠSchwarz":8247,"strafe":8248,"ĠGeorgie":8249,"Ã¨s":8250,"ĠvoÃīÃī":8251,"ĠKorrekt":8252,"ĠVerwandtschaft":8253,"Ġgeliebt":8254,"Ġschweigen":8255,"Ġweggelaufen":8256,"Ġberechtig":8257,"ĠFortschritte":8258,"ĠDonnerwetter":8259,"ĠPelzmantel":8260,"ĠbefÃ¼rchten":8261,"Ġtelefonieren":8262,"ĠKaserne":8263,"Ġbeleidigt":8264,"ĠLippenstift":8265,"Ġnehmt":8266,"Ġedler":8267,"ĠExplosionen":8268,"ĠFinanzabteilung":8269,"ĠWaggons":8270,"ĠerbÃ¤rm":8271,"Ġwohnte":8272,"ĠentzÃ¼ck":8273,"ĠEmily":8274,"ĠEisenbahn":8275,"Ġilluster":8276,"ĠNahrung":8277,"ĠstÃ¤rker":8278,"ĠAngestellten":8279,"ĠKaminsky":8280,"ĠmerkwÃ¼rdige":8281,"ĠerÃ¶ffnen":8282,"ĠGerichtssaal":8283,"Ġdunklen":8284,"Ġmisstrauisch":8285,"ĠbrÃ¤uchten":8286,"ĠAbente":8287,"ĠVirgil":8288,"ĠUnschuld":8289,"ĠErgebnis":8290,"ĠÃ¤uÃŁer":8291,"ĠSaylor":8292,"ĠNellie":8293,"ĠKwai":8294,"ĠTicket":8295,"ĠErlbacher":8296,"ĠKoIossaI":8297,"zumachen":8298,"ĠHughes":8299,"ĠTemperatur":8300,"Ġgehofft":8301,"ĠKommerzienrat":8302,"ĠTimbuktu":8303,"ĠSwain":8304,"ĠEimer":8305,"ĠAperitif":8306,"ĠGÃ©rard":8307,"ĠBixby":8308,"ĠRoland":8309,"ĠJacques":8310,"ĠVerfÃ¼gung":8311,"Ġumsonst":8312,"ĠChattanooga":8313,"ĠLazarett":8314,"400":8315,"Mo":8316,"Maus":8317,"Ver":8318,"brÃ¼":8319,"baum":8320,"cH":8321,"cin":8322,"die":8323,"ding":8324,"digung":8325,"ep":8326,"fest":8327,"feln":8328,"frieden":8329,"field":8330,"gier":8331,"ging":8332,"hor":8333,"held":8334,"hard":8335,"horn":8336,"hÃ¤ng":8337,"hemd":8338,"jetzt":8339,"jemand":8340,"ku":8341,"kannt":8342,"kirk":8343,"kraft":8344,"lass":8345,"lungen":8346,"mt":8347,"nado":8348,"offen":8349,"oster":8350,"osse":8351,"risch":8352,"tin":8353,"tank":8354,"troffen":8355,"thalt":8356,"wana":8357,"Ġor":8358,"cha":8359,"chn":8360,"ente":8361,"ĠdÃ¼n":8362,"inkt":8363,"Ġsauer":8364,"Ġsitze":8365,"ston":8366,"stlich":8367,"ĠSing":8368,"ĠSiz":8369,"ĠSingen":8370,"aska":8371,"anche":8372,"Ġmer":8373,"Ġmerkt":8374,"Ġnull":8375,"gem":8376,"geber":8377,"gemacht":8378,"geschlagen":8379,"ĠDrau":8380,"ĠDinner":8381,"Ġitalien":8382,"auben":8383,"ichts":8384,"Ã¼ft":8385,"Ã¼cht":8386,"irken":8387,"lla":8388,"Ġbaut":8389,"arkt":8390,"ĠMÃ¤use":8391,"ĠMathemat":8392,"Ġeint":8393,"Ġeinnehmen":8394,"Ġeinladen":8395,"Ġeinsteigen":8396,"ĠEdel":8397,"ĠAhnen":8398,"ĠAffen":8399,"ĠAprop":8400,"Ġkg":8401,"Ġkanad":8402,"hrung":8403,"ĠHy":8404,"Ġgehn":8405,"Ġgezogen":8406,"Ġunm":8407,"ĠzÃ¶":8408,"ora":8409,"ory":8410,"itut":8411,"ĠBann":8412,"ĠBwana":8413,"Ã¶ck":8414,"Ã¶hnt":8415,"Ã¶pft":8416,"ĠNenn":8417,"ĠNorden":8418,"ĠKoch":8419,"ĠKern":8420,"ĠKater":8421,"ĠKonn":8422,"ĠKollege":8423,"aly":8424,"mmt":8425,"ĠField":8426,"ĠFabr":8427,"Ġginge":8428,"schi":8429,"schrau":8430,"ettel":8431,"ettern":8432,"etho":8433,"ĠfrÃ¶":8434,"berto":8435,"ĠJÃ¤ger":8436,"ĠJosÃ©":8437,"dere":8438,"iera":8439,"iergang":8440,"ĠLire":8441,"ĠLetztes":8442,"Ġlock":8443,"Ġerl":8444,"Ġerm":8445,"Ġscheu":8446,"reg":8447,"reffen":8448,"Ġdenselben":8449,"ĠTrÃ¤ume":8450,"Ġverf":8451,"Ġverder":8452,"ĠverÃ¤r":8453,"Ġvergeben":8454,"Ġverschie":8455,"ĠPst":8456,"ĠPsst":8457,"ĠVen":8458,"Ġint":8459,"ight":8460,"bewer":8461,"Ġanziehen":8462,"utscht":8463,"ument":8464,"umpf":8465,"ĠRin":8466,"ĠRate":8467,"ĠRatten":8468,"ĠSchÃ¤del":8469,"ĠScheck":8470,"ĠSchiffe":8471,"Ġaufschl":8472,"Ġaufnehmen":8473,"Ġaufmerksam":8474,"Ġtrafen":8475,"ĠErlaub":8476,"ĠZahl":8477,"ĠZauber":8478,"ĠZyl":8479,"ĠOff":8480,"ĠOma":8481,"fenthalt":8482,"seph":8483,"ĠStr":8484,"rÃ¼stung":8485,"ĠEinmal":8486,"ĠVerz":8487,"ĠVerhalten":8488,"ĠVerhaft":8489,"steckt":8490,"hling":8491,"Ġreserv":8492,"ĠAnh":8493,"ĠAnblick":8494,"ĠAufenthalt":8495,"ĠHeraus":8496,"ister":8497,"istan":8498,"Ġnachzu":8499,"Ġpasse":8500,"anze":8501,"ĠÃ¼berflÃ¼ss":8502,"reibe":8503,"Ġstol":8504,"Ġstimm":8505,"ĠWare":8506,"ikas":8507,"ikel":8508,"leite":8509,"hmen":8510,"ĠDaten":8511,"Ġbesprechen":8512,"ĠAlib":8513,"nergie":8514,"ĠArn":8515,"springen":8516,"sparty":8517,"ĠBeeil":8518,"ĠBeob":8519,"ĠBeeilung":8520,"ĠBedenken":8521,"ĠReicht":8522,"ĠRepor":8523,"Ã¼nde":8524,"Ġentsp":8525,"ĠMai":8526,"ĠMaÃŁ":8527,"blÃ¼":8528,"Ġweggehen":8529,"ĠNapol":8530,"Ġamus":8531,"halte":8532,"Ġverlor":8533,"ĠJoseph":8534,"vers":8535,"ĠManager":8536,"ĠRuhm":8537,"ammelt":8538,"ĠMittern":8539,"ĠWeiÃŁen":8540,"Ġrauchen":8541,"ĠHaufen":8542,"astung":8543,"ĠChancen":8544,"aldirektor":8545,"Ġarm":8546,"Ġweiteres":8547,"Ã¼ttern":8548,"ĠRose":8549,"ĠKay":8550,"ĠKavi":8551,"Ġrauskommen":8552,"ĠOrangen":8553,"ĠEntspannen":8554,"ĠJahrh":8555,"Ã¤ufer":8556,"ĠDarja":8557,"ĠBlind":8558,"Ġerstes":8559,"ĠMale":8560,"Ġlebst":8561,"Ġledig":8562,"Ġlebte":8563,"Ġgegenseit":8564,"ĠÃľbel":8565,"ĠKindes":8566,"ĠAusl":8567,"schlÃ¤":8568,"fÃ¼gen":8569,"ĠBote":8570,"Ġdrum":8571,"Ġdrehen":8572,"Ġdritte":8573,"Ġgestr":8574,"Ġgestanden":8575,"scheck":8576,"Ã¤ndler":8577,"ĠÃľberall":8578,"ĠÃľbergewicht":8579,"Ġgeradeaus":8580,"Ã¤mpfen":8581,"ardy":8582,"Ġbefrei":8583,"ĠSagten":8584,"Ġbegangen":8585,"ĠUnterb":8586,"Ġsuchte":8587,"werte":8588,"ĠPolit":8589,"ĠHerzlichen":8590,"anders":8591,"Ã¶tige":8592,"ĠMÃ¶ge":8593,"Ġbeschwer":8594,"ĠbeschÃ¼tzen":8595,"Ã¼ssel":8596,"ĠCount":8597,"quer":8598,"quartier":8599,"ĠGewicht":8600,"ĠVerzeiht":8601,"orgio":8602,"ĠAntworten":8603,"ĠdÃ¼rft":8604,"Ġebenfalls":8605,"ĠExpedition":8606,"Ġfeststellen":8607,"Ġreite":8608,"ĠKompan":8609,"ĠElem":8610,"ĠReiz":8611,"ĠBenito":8612,"ĠFranzÃ¶s":8613,"ĠAutos":8614,"ĠGeneraldirektor":8615,"Ġbenommen":8616,"deln":8617,"ĠGebet":8618,"ĠBruch":8619,"Ġentschuldige":8620,"ĠWoran":8621,"Ġzwingen":8622,"ĠSchÃ¶ne":8623,"ĠTristan":8624,"ĠZieht":8625,"Ġbrennt":8626,"ĠOffizieren":8627,"Ġprotest":8628,"ikaner":8629,"ĠWeihnacht":8630,"Ġvergleich":8631,"ĠSchlamm":8632,"Ġfrische":8633,"ĠKugel":8634,"ĠMichael":8635,"ĠTornado":8636,"ĠSchuft":8637,"ĠbÃ¶ser":8638,"gefahren":8639,"Ġerkennt":8640,"ĠLokal":8641,"ĠUrwald":8642,"Ġkomische":8643,"ĠKnast":8644,"Ġflehe":8645,"ĠCarl":8646,"ĠCarole":8647,"ĠSlum":8648,"ĠFÃ¼hrer":8649,"ĠSÃ¼ÃŁ":8650,"Ġplan":8651,"ĠgegrÃ¼ÃŁt":8652,"Ġdummen":8653,"ĠMacL":8654,"ĠFahrer":8655,"ĠFahrrad":8656,"ĠSahne":8657,"ĠBrook":8658,"ĠBrogan":8659,"ĠPatro":8660,"ĠTapfer":8661,"ĠrÃ¼hren":8662,"ĠhÃ¼bsches":8663,"ĠdrÃ¼ber":8664,"Ġ60":8665,"Ġversagt":8666,"Ã¼ndigt":8667,"Ġbemerk":8668,"ĠFrÃ¼hling":8669,"aktion":8670,"uhige":8671,"Ġemotion":8672,"Ġvorgeht":8673,"ĠKonkur":8674,"ĠKosake":8675,"Ġertrunken":8676,"Ġdaneben":8677,"ĠStudent":8678,"Ġstattf":8679,"ĠsÃ¼ÃŁe":8680,"ĠtrÃ¤um":8681,"ĠLauter":8682,"Ġdahinter":8683,"Ġokay":8684,"system":8685,"ĠBomben":8686,"ĠBombe":8687,"ĠVerwick":8688,"ĠLeucht":8689,"Ġnormalerweise":8690,"ĠOliven":8691,"Ġregnen":8692,"Ġvergeuden":8693,"ĠDaddy":8694,"ĠunverzÃ¼glich":8695,"ĠKleinigkeit":8696,"ĠSchmutz":8697,"rosseln":8698,"Ġschwarze":8699,"ĠKatzen":8700,"kriegt":8701,"Ġverzwei":8702,"Ġbefehlen":8703,"Ġbrav":8704,"Ġabsur":8705,"ĠText":8706,"stÃ¼cke":8707,"ivers":8708,"ĠWollt":8709,"ĠBuskirk":8710,"ĠFremden":8711,"Ġunterschreiben":8712,"ĠFeiglinge":8713,"ĠFriedhof":8714,"ĠCorpor":8715,"ĠSantner":8716,"ĠHenry":8717,"ĠProdukt":8718,"ĠNachbarn":8719,"Ġverbrannt":8720,"ĠTropfen":8721,"ĠenttÃ¤uschen":8722,"ĠMissionar":8723,"ĠCowboys":8724,"ĠKriegsgericht":8725,"ĠhÃ¶chste":8726,"ĠGrÃ¼nde":8727,"ĠFaszinieren":8728,"ĠGiorgio":8729,"leiterin":8730,"Ġkaufte":8731,"Ġreparieren":8732,"ĠDavis":8733,"ĠBourget":8734,"Ġgarantiert":8735,"Ġdiskutieren":8736,"Ġsinnlos":8737,"ĠPersÃ¶nlichkeit":8738,"ĠSchrecklich":8739,"Ġgehorchen":8740,"ĠUntersuchung":8741,"ĠKrawatte":8742,"juscha":8743,"ĠBezirk":8744,"ĠgenÃ¼gt":8745,"aubernd":8746,"Flug":8747,"Ġgeleistet":8748,"ĠRiviera":8749,"ĠgeschÃ¤ftlich":8750,"Ġarrangieren":8751,"ĠFrisur":8752,"ĠUnterhaltung":8753,"ĠSpirit":8754,"ĠAufregung":8755,"ĠKoschewo":8756,"ĠHaushÃ¤lterin":8757,"ĠWaisenhaus":8758,"ĠVergangenheit":8759,"ĠBarrett":8760,"ĠErpressung":8761,"ĠAusgezeichnet":8762,"Ġdefinitiv":8763,"Moore":8764,"ĠSizilien":8765,"ĠMathematik":8766,"ĠApropos":8767,"ĠBanner":8768,"ĠErlaubnis":8769,"ĠVerhaftung":8770,"ĠNapolÃ©on":8771,"ĠMitternacht":8772,"ĠKaviar":8773,"ĠKompanie":8774,"ĠKonkurren":8775,"39":8776,"Ch":8777,"FT":8778,"IT":8779,"Maschine":8780,"Wie":8781,"aft":8782,"ba":8783,"bol":8784,"bru":8785,"bliche":8786,"bringt":8787,"bridge":8788,"col":8789,"dliche":8790,"ev":8791,"eÃī":8792,"fur":8793,"fung":8794,"fÃ¤lle":8795,"gast":8796,"hern":8797,"heid":8798,"ide":8799,"ium":8800,"ile":8801,"izen":8802,"ipe":8803,"jo":8804,"kten":8805,"kat":8806,"kÃ¶nig":8807,"korde":8808,"kunst":8809,"letzt":8810,"lager":8811,"mund":8812,"oÃŁen":8813,"rein":8814,"sammen":8815,"sweise":8816,"tar":8817,"uÃŁ":8818,"ussen":8819,"wes":8820,"zert":8821,"Ġur":8822,"chsel":8823,"enz":8824,"Ġdi":8825,"Ġdauer":8826,"inie":8827,"inal":8828,"iest":8829,"Ġsorge":8830,"stall":8831,"station":8832,"stausch":8833,"Ġwest":8834,"ĠSas":8835,"ĠSinne":8836,"ĠSibir":8837,"ĠSattel":8838,"ĠSehnsucht":8839,"anss":8840,"Ġmi":8841,"Ġmeldet":8842,"Ġmutig":8843,"Ġhand":8844,"ĠhÃ¤r":8845,"ĠhÃ¤ss":8846,"geschen":8847,"eis":8848,"ĠWut":8849,"ĠWÃ¤ren":8850,"ĠDau":8851,"ĠDiv":8852,"ĠDisk":8853,"Ã¼ten":8854,"Ã¼chte":8855,"irs":8856,"teten":8857,"teste":8858,"arke":8859,"ĠMÃ¼n":8860,"ĠMeldung":8861,"Ġeinander":8862,"Ġeinrichten":8863,"ĠEll":8864,"ĠEÃī":8865,"ĠEnergie":8866,"ĠAir":8867,"ĠAss":8868,"ĠAkt":8869,"ĠAIs":8870,"Ġkna":8871,"Ã¤den":8872,"Ã¤che":8873,"ĠHir":8874,"ĠHÃ¤":8875,"ĠHÃ¼b":8876,"ĠHardy":8877,"Ġgep":8878,"ĠgeÃī":8879,"Ġgebt":8880,"Ġgeeignet":8881,"ĠGab":8882,"ĠGÃ¶d":8883,"Ġza":8884,"Ġzeit":8885,"ĠzÃ¤hlen":8886,"ores":8887,"orfen":8888,"itr":8889,"ĠBol":8890,"ĠBisch":8891,"ĠBain":8892,"ĠBax":8893,"ĠBibel":8894,"ĠKasse":8895,"ĠKette":8896,"ĠKennt":8897,"ĠKonnen":8898,"Ġzuverl":8899,"Ġzugrunde":8900,"tens":8901,"ĠFieber":8902,"Ġgive":8903,"schm":8904,"schung":8905,"schossen":8906,"etit":8907,"etisch":8908,"Ġform":8909,"ĠJau":8910,"ierter":8911,"ĠLat":8912,"ĠLungen":8913,"ĠLaren":8914,"ĠLump":8915,"ĠLeistung":8916,"Ã¼re":8917,"ehmer":8918,"Ġlernt":8919,"ĠlÃ¶st":8920,"Ġerne":8921,"Ġerho":8922,"Ġerschein":8923,"ĠschÃ¼t":8924,"Ġscheiden":8925,"ĠschÃ¼chtern":8926,"rete":8927,"rede":8928,"reundet":8929,"Ġak":8930,"elne":8931,"ĠTur":8932,"Ġverlegen":8933,"Ġverpfl":8934,"ckten":8935,"ckey":8936,"ĠPage":8937,"ĠPic":8938,"ĠPimpf":8939,"ĠVict":8940,"Ġinter":8941,"Ġankommt":8942,"indig":8943,"atisch":8944,"Ġmitbringen":8945,"agung":8946,"ĠRand":8947,"ĠJacke":8948,"ĠSchild":8949,"ĠSchock":8950,"ĠSchrÃ¤ger":8951,"ĠSchema":8952,"Ġaufw":8953,"Ġware":8954,"Ġwarme":8955,"Ãīfen":8956,"Ãīuck":8957,"ĠtrÃ¼":8958,"ĠtÃ¤u":8959,"Ġtollen":8960,"Ġtrauen":8961,"Ġtoten":8962,"Ġtrain":8963,"Ġthei":8964,"ĠUner":8965,"ĠErb":8966,"ĠErsp":8967,"ĠZo":8968,"ĠZettel":8969,"ĠZitr":8970,"Ġbester":8971,"Ġbeenden":8972,"Ġbewaffnet":8973,"ĠOkt":8974,"ĠOpa":8975,"etzter":8976,"ĠWirkung":8977,"rob":8978,"rogen":8979,"sendung":8980,"Ġausmachen":8981,"Ġausziehen":8982,"ĠCas":8983,"ĠConn":8984,"ĠCame":8985,"ĠStal":8986,"ĠStÃ¤d":8987,"ĠStreiten":8988,"ĠStÃ¼tz":8989,"ĠStrecke":8990,"ĠEinem":8991,"ĠEinfluss":8992,"olde":8993,"Ġohn":8994,"ĠVersp":8995,"ĠVerleum":8996,"ĠAnzei":8997,"ĠAustausch":8998,"Ġumzubringen":8999,"omen":9000,"iston":9001,"entiment":9002,"ĠÃ¼berl":9003,"ĠÃ¼berlegt":9004,"ĠÃ¼bermorgen":9005,"Ġbeigebracht":9006,"Ġstreiten":9007,"ultur":9008,"lauf":9009,"laut":9010,"ankee":9011,"Ġwohne":9012,"ĠwohÃī":9013,"riegt":9014,"undf":9015,"Ġabk":9016,"Ġabstellen":9017,"gerlich":9018,"Ġbesessen":9019,"Ġbesitzen":9020,"lappt":9021,"zugehen":9022,"ĠSpann":9023,"ĠSport":9024,"ĠSpitze":9025,"ĠAlberto":9026,"loser":9027,"ĠArmen":9028,"lieger":9029,"ruhe":9030,"rucken":9031,"ruhig":9032,"spl":9033,"ĠÃīange":9034,"ĠWerfen":9035,"ickte":9036,"ĠRegel":9037,"antastisch":9038,"rÃ¤u":9039,"abwÃ¤rts":9040,"Ġgewachsen":9041,"Ġgeworfen":9042,"imes":9043,"ĠFlÃ¶":9044,"ĠgefaÃīÃī":9045,"ĠAufnahme":9046,"Ã¼nscht":9047,"ĠzurÃ¼ckrufen":9048,"ĠFreunden":9049,"ĠenthÃ¤lt":9050,"ĠKommiss":9051,"ĠFrÃ¶":9052,"ĠFreitag":9053,"ĠFriston":9054,"Ġdieselbe":9055,"ĠVorh":9056,"ĠVorges":9057,"ĠVorschuss":9058,"ĠMeineid":9059,"ĠschÃ¶nsten":9060,"aps":9061,"apman":9062,"izabeth":9063,"Ġuntersuchen":9064,"haben":9065,"ĠDog":9066,"brett":9067,"ĠProbieren":9068,"ĠProgramm":9069,"ÃīÃīes":9070,"ĠChin":9071,"ĠChief":9072,"ĠChapman":9073,"ĠMarion":9074,"ĠPfeile":9075,"ĠRoad":9076,"ĠSchwer":9077,"ĠSchwung":9078,"ĠSchwestern":9079,"ĠOrgan":9080,"glichen":9081,"ĠDenkst":9082,"ĠKost":9083,"ĠÃĮit":9084,"ĠÃĮorgen":9085,"ĠÃĮaÃī":9086,"ĠGefreiter":9087,"ĠDarsteller":9088,"Ġneulich":9089,"warten":9090,"Ġerstach":9091,"ĠPlat":9092,"Ġhoff":9093,"Ġreingelegt":9094,"ĠBerech":9095,"ĠBeruhige":9096,"waffe":9097,"Ġwenigen":9098,"Ġschlank":9099,"ĠfÃ¼hr":9100,"ittchen":9101,"ĠUmweg":9102,"Ġechte":9103,"wechs":9104,"wechsel":9105,"Ġangezogen":9106,"ĠBesitz":9107,"schaffen":9108,"ĠLeder":9109,"zeiten":9110,"ĠBoy":9111,"ĠBoston":9112,"Ġdreht":9113,"Ġgestimmt":9114,"schew":9115,"richtung":9116,"ĠNeun":9117,"flÃ¼ge":9118,"flaschen":9119,"Ġbefreundet":9120,"ĠDrama":9121,"kommst":9122,"garten":9123,"Ġbegreifen":9124,"Ġbringst":9125,"Ġausgesucht":9126,"Ġausgesprochen":9127,"Ġkennenzul":9128,"ingenieur":9129,"icherung":9130,"ĠSollten":9131,"ĠWille":9132,"ĠPapier":9133,"ĠYuma":9134,"ĠYankee":9135,"ĠKopfschmerzen":9136,"Ã¶tigen":9137,"glÃ¤ub":9138,"ĠGewitter":9139,"ĠPferden":9140,"Ġbewunder":9141,"ĠAntarkt":9142,"sinnig":9143,"ĠÃĦn":9144,"Ġinteressante":9145,"Ġreitet":9146,"erstoff":9147,"ĠElena":9148,"ĠElizabeth":9149,"Ġbetrogen":9150,"ĠkÃ¼sst":9151,"erriller":9152,"ifte":9153,"ĠNieder":9154,"Ġhinterlassen":9155,"ĠMadeira":9156,"ĠMadonna":9157,"Ġbenimmst":9158,"ĠKanal":9159,"ĠRitas":9160,"ĠGebieter":9161,"Ġherausgefunden":9162,"rÃ¶ten":9163,"Ġtreffe":9164,"Ġgekriegt":9165,"ĠWundert":9166,"ĠWunderschÃ¶n":9167,"ĠHauptsache":9168,"ĠHauptquartier":9169,"ampe":9170,"ampen":9171,"Ġzwang":9172,"ĠQue":9173,"Ġsterbe":9174,"Ġstarke":9175,"ĠClum":9176,"ĠClarke":9177,"ĠQuatsch":9178,"Ġverschwinde":9179,"ĠHintern":9180,"Ġblind":9181,"Ã¶llÃ¶":9182,"ĠJanou":9183,"ĠhÃ¼bschen":9184,"ĠCharles":9185,"ĠKnien":9186,"ĠwÃ¼ssten":9187,"Ġkurzem":9188,"aturen":9189,"ĠShanss":9190,"ĠShores":9191,"ĠheÃīfen":9192,"ĠMiller":9193,"zip":9194,"ĠSÃ¼d":9195,"ĠSuppe":9196,"ĠSumme":9197,"Ġerwischen":9198,"Ġcm":9199,"Ġdummes":9200,"Ġanfassen":9201,"udding":9202,"ĠVerband":9203,"tour":9204,"ĠJobs":9205,"ĠBrote":9206,"andelst":9207,"andelte":9208,"Ġschreckliche":9209,"Ġheiratete":9210,"ĠPatrick":9211,"ĠHimmels":9212,"Ġ191":9213,"ĠMarlowes":9214,"ĠWeges":9215,"ĠHeiÃŁt":9216,"ĠÃīieben":9217,"ĠgrÃ¼nen":9218,"Ġ600":9219,"ĠÃ¼be":9220,"ĠaÃīÃīe":9221,"Ġlaufe":9222,"ĠfÃ¼hlte":9223,"Ġeleg":9224,"ĠMilitÃ¤r":9225,"Ġbedienen":9226,"oley":9227,"ĠpersÃ¶nliche":9228,"ovika":9229,"ĠKonservatorium":9230,"ĠNotfall":9231,"ĠGelÃ¤nde":9232,"ĠKeller":9233,"ĠBernard":9234,"Ġjunges":9235,"Ġtiefer":9236,"ĠBÃ¶sen":9237,"hÃ¶hung":9238,"okrat":9239,"ĠAkkorde":9240,"Ġverabschie":9241,"ĠÃĸff":9242,"Ġreizenden":9243,"Ġzerschlagen":9244,"ĠEditha":9245,"ĠFolter":9246,"radition":9247,"ĠGrenz":9248,"ĠsoÃīÃītest":9249,"Ġantworten":9250,"ĠKlavier":9251,"ĠFernseher":9252,"ĠNÃ¤chsten":9253,"ĠZÃ¼rcher":9254,"ĠPrinz":9255,"ĠMotorrad":9256,"ĠVerluste":9257,"ĠAndrÃ¡ssy":9258,"ĠAgenten":9259,"Ã¤sser":9260,"Ġerneute":9261,"kampf":9262,"Ġlohnt":9263,"ĠBÃ¤umen":9264,"ĠVieÃīÃīeicht":9265,"ĠwoÃīÃīte":9266,"ĠGnÃ¤d":9267,"Ġverloben":9268,"Ġgeheimnis":9269,"Ġirgendwelche":9270,"ĠPrÃ¤sident":9271,"ĠXjuscha":9272,"ĠLincol":9273,"ĠOperation":9274,"ĠStreichkÃ¤se":9275,"ĠÃ¼bernehme":9276,"ĠseÃībst":9277,"ĠHeimat":9278,"ĠFelsen":9279,"ĠFelipe":9280,"schule":9281,"Ġwichtigen":9282,"ĠAbgesehen":9283,"ĠFaÃīÃī":9284,"ĠFalsche":9285,"Ġbequemer":9286,"Ġmenschlichen":9287,"Ġfernbleiben":9288,"ĠerzahÃīt":9289,"ĠgehÃ¶rte":9290,"pression":9291,"ĠSantander":9292,"ĠKommunist":9293,"ympath":9294,"ĠCents":9295,"Ġheutigen":9296,"Ġschlaf":9297,"ĠrÃ¤um":9298,"Ġbestimmten":9299,"ĠIsolde":9300,"ĠZiviI":9301,"bination":9302,"ĠSzenen":9303,"ĠSÃ¤ngerin":9304,"ĠhÃ¶chstens":9305,"ĠBurschen":9306,"Ġlernte":9307,"ĠFascin":9308,"ĠAnzahlung":9309,"Ġfeste":9310,"ĠEingangstÃ¼r":9311,"ĠKloster":9312,"anstalt":9313,"Ġkurzen":9314,"ĠLastwagen":9315,"ĠGrÃ¶ÃŁe":9316,"ĠSauerstoff":9317,"Ġklopfen":9318,"Ġfaul":9319,"view":9320,"ĠAdelheid":9321,"ĠNarbe":9322,"Ġbezweifle":9323,"ĠBedingungen":9324,"ĠWÃ¼nsche":9325,"ĠAstrid":9326,"ĠKolbe":9327,"Ġinnerhalb":9328,"Ġromantisch":9329,"ĠJessy":9330,"ĠÃĮochtest":9331,"ĠEngÃīisch":9332,"ĠgnÃ¤dige":9333,"ĠJouvain":9334,"kÃ¼che":9335,"ĠJennings":9336,"ĠgemÃ¼tlich":9337,"ĠBoubo":9338,"ĠzukÃ¼nftige":9339,"sdame":9340,"ĠWÃ¶rterbuch":9341,"ĠlÃ¤uten":9342,"sentiert":9343,"ĠMaultiere":9344,"ĠWallersee":9345,"Ġkorrekt":9346,"ĠRhoden":9347,"Ġopfern":9348,"ĠNapole":9349,"Ġangetan":9350,"ĠKapitÃ¤n":9351,"ĠVerlobter":9352,"ĠModell":9353,"Ġsanft":9354,"ĠAÃīso":9355,"ĠGuerriller":9356,"ĠGauner":9357,"Ġzerrissen":9358,"ĠgÃ¤be":9359,"ĠschÃīecht":9360,"ĠPedal":9361,"ĠReitlehrer":9362,"Ġtiefen":9363,"ĠHermelin":9364,"ĠAlbtraum":9365,"ĠKÃ¼hlschrank":9366,"ĠDrauÃŁen":9367,"ĠAlibi":9368,"ĠAuslÃ¤nder":9369,"Champagner":9370,"ĠSasabe":9371,"ĠSibirien":9372,"geschenk":9373,"ĠEÃītern":9374,"ĠGÃ¶dÃ¶llÃ¶":9375,"ĠBainbridge":9376,"Ġerneut":9377,"Ġerscheint":9378,"ckeyspieler":9379,"ĠVictor":9380,"Ġtheir":9381,"ĠOktober":9382,"ĠConnie":9383,"ĠgefaÃīÃīt":9384,"Ġkennenzulernen":9385,"ĠShanssey":9386,"ĠLincoln":9387,"ĠFascination":9388},"merges":["c h","e n","e r","Ġ d","i n","i e","i ch","Ġ s","s t","Ġ w","Ġ S","e in","a s","a n","Ġ m","Ġ n","u n","Ġ h","g e","e i","Ġ W","Ġ D","Ġ i","a u","Ġ I","ich t","Ã ¼","e s","i r","t e","l l","ĠS ie","Ġ b","a r","Ġ M","Ġ ein","Ġn icht","Ġ v","Ġ E","ĠI ch","Ġ A","Ġh a","Ġ k","Ã ¤","h r","g en","Ġi st","Ġ ich","o n","Ġ H","Ġ ge","Ġ G","Ġ un","Ġ z","o r","Ġd as","i t","Ġd ie","Ġ B","Ã ¶","Ġ au","a ch","Ġ N","Ġ K","a l","Ġz u","m m","t en","b en","Ġ F","Ġ g","s ch","e t","Ġ f","b er","d e","Ġ J","Ġd u","Ġ es","d er","i er","Ġ L","Ã¼ r","e h","Ġ l","s s","an n","Ġ er","Ġw ir","Ġs ch","d en","r e","Ġ a","t er","Ġd er","e m","Ġun d","o ch","e l","h n","Ġd en","Ġs o","Ġ T","u r","Ġv er","c k","Ġ P","Ġ V","Ġ in","Ã Ł","i g","ĠD as","Ġs ie","b e","l ich","Ġ an","u t","u m","Ġ U","ein e","in d","a t","en n","Ġm it","a g","Ġ R","ĠJ a","o mm","ĠW as","ĠS ch","Ġm ir","un g","Ġau f","Ġ j","Ġw ar","Ã ī","Ġha t","Ġm ich","Ġ t","ĠU n","a m","ĠE r","e u","ei t","Ġw ie","l e","e hr","r au","Ġs ich","Ġ Z","Ġs ind","Ã¶ n","o ll","Ġb e","Ġ O","Ġge h","ĠE s","et z","s er","Ġein e","Ġdas s","Ġf Ã¼r","ĠD u","ĠW ir","Ġd a","ĠD ie","r o","eh en","s en","Ġw as","Ġha ben","f en","i s","Ġha be","an k","ss en","r a","Ġd ich","Ġn och","i ll","Ġw er","Ġau s","ĠUn d","Ġv on","Ġ C","Ġh ier","ĠW ie","ch en","s e","ĠS t","Ġm ein","r Ã¼","ĠE in","Ġa ll","b t","an d","Ġw ei","ĠN ein","o l","ach t","Ã¶ r","f t","Ġ o","ĠV er","Ġi hn","st e","Ġk ann","Ġs ein","Ġb in","h l","er n","Ġau ch","Ġ r","Ġein en","Ġ al","Ġd ir","ie l","ĠI hr","Ġun s","Ġi hr","Ġd em","ĠA n","Ã¤ n","a ll","Ġn ur","ĠA ber","Ã¼ ber","ĠA u","i l","omm en","Ã¶n n","ch t","etz t","e g","Ġ um","o m","it te","i mm","ĠH er","r in","Ġso ll","Ġv or","i sch","i st","Ġm u","Ã¤ t","Ġn ach","Ġsch on","Ġ p","en t","f f","an z","Ġwir d","a gen","o s","Ġk Ã¶nn","k t","Ġal s","Ġ Ã¼ber","or t","Ġd och","ĠG e","w as","o t","r ei","hn en","Ġw ill","Ġi m","Ġw enn","Ġa ber","Ġb ei","Ġ et","Ġs t","Ġs p","ll e","ĠW ar","u l","Ġw oll","a hr","ach en","ĠW o","ĠD er","l au","ank e","Ġwei ÃŁ","Ġw o","Ġg ut","Ġm al","g t","ĠI hnen","Ġet was","Ġwer den","Ġm an","ĠW enn","w ei","ĠHer r","h e","a d","Ġ re","Ġge s","mm er","' s","Ġha st","Ġj a","te t","Ġmu ss","Ġnicht s","Ġm ehr","rÃ¼ ck","i k","as sen","eu te","u g","as s","Ġk ein","st en","Ġm eine","Ġl ie","ĠS o","l ei","k en","ĠH a","r ie","h m","Ġden n","Ġs ehr","un d","ĠD a","ĠI n","Ġa b","Ġk eine","Ġ 1","Ã¤ r","e ben","g er","s o","Ġh er","Ġ Ã","Ġn ie","Ġb es","l a","ĠD anke","i ge","n e","Ġk omm","e st","Ġd ann","z u","Ġj etzt","ĠS p","Ġan der","ĠA l","ĠF rau","n er","l o","ag t","h en","ch e","au s","i ssen","i on","ĠA r","Ġwie der","Ġall es","Ġb ist","ier t","i gen","Ġw Ã¼r","l ie","Ġm Ã¼","Ġgeh t","i ss","u s","u ten","Ġv iel","ie lle","r u","ei l","Ġd ar","b st","b ei","Ġo der","s p","ĠG es","Ġ Ãī","ielle icht","p f","ĠM ann","0 0","m en","ĠB e","or gen","in g","h t","Ġzu m","h er","i bt","ĠWar um","Ġd es","ĠkÃ¶nn en","ĠW er","an g","Ġi mmer","Ã¼ ck","Ġb itte","Ġg anz","ÃŁ en","ier en","i ck","z en","Ġs agen","ĠN icht","k ommen","ei d","Ġs ehen","p p","ĠH ier","Ġm achen","Ġun ser","ĠE n","ch te","ĠR e","Ġd ein","Ġh in","Ġi hm","an t","Ġt un","r Ã¤","a b","a ter","ge l","ul d","Ġge w","i en","ĠM r","Ġg lau","i m","ĠL ie","Ġ gen","Ġh ei","Ġg ibt","ĠF l","Ġein er","Ġein em","Ġge f","ĠI st","Ġwer de","f fen","ĠAu f","f e","ĠD ann","Ġs te","Ġh Ã¤t","Ã¶r t","Ã¼ n","Ġm Ã¶","Ġwoll en","in n","ĠmÃ¼ ssen","ĠwÃ¼r de","k e","Ġzu rÃ¼ck","Ġk l","ĠB itte","Ġha b","z e","el d","ĠF re","sch en","ĠZ eit","m al","Ġ ent","ĠM a","ĠK omm","et t","er t","b l","Ġgeh en","Ġb rau","Ġver st","ĠO h","an ge","Ġw eg","ben d","Ġall e","Ġb is","Ġs ag","Ġ eu","u ch","Ã¶r en","Ġ 2","ĠN a","ĠF r","Ã¤ re","icht ig","Ġj e","le ich","Ġa m","h al","Ġw issen","Ġge sch","a ge","ĠH all","a de","s st","Ġhat te","u te","e gen","un gen","un den","Ġdie s","Ġver l","ĠV or","Ġw ur","Ġh eute","ar r","h eit","ĠS ir","eh men","ĠJ o","ĠM ein","Ġsch Ã¶n","a p","Ġk enn","v er","hr en","ste ll","Ġs el","ĠA bend","ĠHall o","i z","Ġl os","imm t","k lich","r i","ĠG ut","ĠM an","Ġk ommen","ĠN acht","ach e","ĠR u","ĠJ etzt","ar t","Ġdu r","a mm","Ġb lei","Ġun ter","ĠhÃ¤t te","ĠM it","ĠM on","ĠM iss","h a","gen d","ei gen","ĠG eh","ff e","ĠV ielleicht","ĠIhr e","Ġdie se","Ġwoll te","Ġwo hl","ĠW ei","ĠG eld","Ġdur ch","ĠD o","am it","ĠÃī ch","Ġw Ã¤re","ĠS e","l Ã¼ck","b r","s ehen","ĠF Ã¼r","Ġ rau","ĠA ch","ĠH au","hn e","b ar","l t","an gen","ĠP ro","ĠV ater","Ġkomm t","Ġg ro","Ġeu ch","Ġbes ser","st er","Ãī Ãī","on n","es s","ĠL eben","g st","Ġsich er","un der","Ġg er","ÃŁ t","Ã¼r lich","at Ã¼rlich","m e","s am","ĠH o","Ġge t","ĠGes ch","Ġwur de","rin gen","a st","ĠC h","an den","re chen","Ġmein en","ĠK l","eh e","al d","Ġg leich","Ġges agt","ĠG r","ĠT ag","Ġ ar","Ġsch w","Ġwei ter","a hl","Ġb er","ĠM ar","in den","au f","Ã¼ t","al t","ĠP f","te l","un ge","ĠG uten","Ġz wei","Ġwir klich","s u","ĠR o","ĠEin e","och en","ot t","Ġl ange","ne ll","ĠmÃ¶ chte","ĠK a","ahr en","at z","ÃŁ e","ach te","un de","in der","Ġg ern","Ġd amit","in e","ĠA ll","Ġein f","ĠG en","Ġrau s","ĠSch w","Ġge m","or d","p t","Ġm acht","Ġzu r","de m","Ġwar en","Ġl assen","ĠO r","ra gen","ĠSch l","ĠEn t","k l","ĠS te","Ġj em","ĠkÃ¶nn te","ĠHa ben","ĠL eute","e ll","Ġr u","Ã¤ ch","g lich","isch en","es en","ĠM en","Ġges ehen","ĠD en","ĠK o","ÃŁ er","ĠJa hr","Ã¤ d","ĠÃ Į","as ch","ĠA b","Ã¤ u","un ter","ĠM Ã¤n","Ġg ar","ĠL u","eh l","ĠGe f","ĠAl so","Ġha l","u ss","ĠM orgen","ĠN un","el t","Ġgeh Ã¶rt","s on","ĠS ei","Ã¤ hl","it z","ĠN ach","e y","ĠD ar","or en","ĠN ur","uld ig","am e","in de","ĠWie so","Ġsel bst","Ġin s","Ġeinf ach","h in","Ġander en","w o","ĠZ u","a ar","v on","at t","Ġkein en","ĠFre und","arr y","Ġsag te","Ġn eu","ĠB l","am en","Ġd ort","Ġn ein","e kt","ie le","ĠK eine","c e","en d","i v","Ġdie ser","ĠM eine","Ġsch nell","Ġd eine","ck t","Ġre den","a h","w ar","Ġv ielleicht","ĠG ott","Ġer st","ĠJ e","ĠP l","Ġp ass","Ã¤ ll","ck en","Ġsoll te","f Ã¼r","ĠG er","Ġ 3","ĠWie der","Ġv om","ig er","ĠMa j","Ġh o","Ġr ein","Ġs eine","ĠM al","iel en","Ġar bei","ĠB er","Ġl e","Ġglau be","w a","n ung","ĠS ind","n a","Ġw en","Ġsch l","v or","Ġge gen","Ġw ahr","ĠÃ ľ","ĠP ar","ĠMÃ¤n ner","b eit","n en","m er","ut ter","ge ben","ĠK ind","Ġo b","ĠAu s","as st","Ġf Ã¼","it t","Ġihn en","ĠJ unge","Ġwill st","a hn","ĠU m","an te","ĠH at","Ġ e","Ġi r","lich e","imm er","ĠHa st","ĠK inder","Ġgen ug","amm en","w e","Ġw Ã¤r","Ġals o","ier e","ĠL ass","Ġwir st","Ġan ge","Ġo hne","Ġmein em","an de","ĠM om","ĠB es","Ġbe st","00 0","sch l","etz en","Ġp aar","sch a","ter n","Ġmein er","ĠAn ge","ĠL e","f Ã¼","ĠK ommen","ra ten","Ã¤d chen","z ei","Ġz ie","Ġ eigen","at ion","Ġkann st","h o","ĠB o","ĠT o","ĠAn gst","ĠAr beit","as se","ge ssen","Ġwei l","est Ã¤t","ĠMom ent","Ġihr e","Ġv iele","i a","Ġd r","Ġge st","n is","ĠH aus","sch e","der n","Ġgen au","f all","Ġm orgen","ei ten","Ġt ut","Ã¤n d","ĠMaj estÃ¤t","z Ã¤hl","Ġh el","ĠM Ã¤dchen","Ġdies em","ĠHau se","ĠÃľ ber","k eit","r icht","Ġ '","ĠB ei","ung s","ra ge","r ank","ĠD ank","Ġdie sen","ĠN e","oll en","Ġd achte","Ġsoll en","ĠFl ug","p er","ĠG ute","sch ie","r en","ĠN atÃ¼rlich","t lich","u st","ĠWieder sehen","re ich","Ġs on","Ġzu s","Ġver su","Ġblei ben","n et","ĠEnt sch","Ã¤ ft","el n","Ġander e","i d","z t","Ã¤ hr","Ġf re","i b","u e","z eu","Ġs ei","ĠG lÃ¼ck","isch e","Ġger ade","a ten","f l","Ġ $","sch w","Ġl ang","Ġda von","Ġgem acht","f ort","ĠM ir","Ġge b","ĠF all","Ġge ben","Ġt rin","Ã¤ m","Ġunser e","Ġpass iert","ar d","Ġer f","ĠAll es","d i","te st","ĠM ik","Ġk onn","ĠAu gen","Ġjem and","au fen","ĠL eid","Ġwar um","Ġall ein","ĠRe cht","Ã¤ll t","e ch","ĠK Ã¶nn","Ġbe f","Ġzus ammen","ĠS ag","Ġdar f","b o","ĠD r","Ġglau ben","Ġmu sst","k omm","s ie","Ġw under","on e","ert ig","ĠWas ser","a y","o g","ĠW eg","Ġk rie","ĠL os","Ġl etz","Ġlie ber","h st","g ar","p l","Ġs agt","ĠM utter","ĠH e","Ġbe g","Ġd rei","ĠS ehr","au m","ll en","ĠM in","hal ten","Ġhel fen","Ġb rin","Ã¤ ter","Ġaus ge","Ġganz e","ĠLie be","ch ten","Ġd anke","ein en","Ġein ge","Ġein es","ach ten","Ġkenn en","ĠUn ter","ĠO der","Ġsp rechen","Ġs u","ĠL and","enn en","Ġw egen","ad t","pp e","z ie","or den","kt or","w er","ĠB r","lich en","Ġste ht","Ġso fort","Ġkomm e","s ste","ĠB arry","Ġer zÃ¤hl","la fen","ĠOr d","in gen","Ġden ken","Ġsie ht","Ġbrau chen","ich er","ĠS oll","ĠW ill","ter ess","ĠP ap","hal b","Ġ Y","Ġm ag","on t","Ġr ichtig","Ġre cht","ĠOrd nung","Ġf inden","in ge","ĠP ol","at s","Ġgeh e","ĠKo pf","d et","er s","Ġso l","ĠO ber","Ġsoll ten","Ġverst ehe","Ġir gend","h ig","Ġs eit","ĠH il","ro t","asch ine","Ġh Ã¶ren","ĠW a","ĠHer z","an der","Ã¶ t","eh t","Ġsch le","k el","ĠM Ã¶","ĠK ann","Ġv oll","Ġl ei","ol en","m and","Ġw eit","ge hen","ĠU hr","Ġda zu","ĠSt adt","Ġhei ÃŁt","sie ur","g l","Ġk am","or ge","Ġf ertig","Ġbes ch","ĠMon sieur","Ġhal ten","ĠB ett","Ġl hr","rÃ¼ck t","ĠDo ktor","scha ft","j a","Ġget an","d r","r ag","Ġb ringen","ĠMen schen","h au","Ã¼ ss","ĠT Ã¼r","Ġm ach","ĠW ahr","Ġl eben","Ġdar an","Ġdies es","ĠB is","st and","Ġn ehmen","Ġn atÃ¼rlich","ĠC o","p r","ei m","icht e","ĠkÃ¶nn ten","Ġlie be","i c","q u","Ġf rÃ¼","Ġden ke","ĠGe w","Ġber eit","Ġarbei ten","Ã¤ lt","Ġf lie","Ġver gessen","Ġ1 0","ĠwÃ¼r den","ĠDo c","br acht","ĠPf er","ĠS ehen","ĠVer zei","Ġsp Ã¤t","Ġsp Ã¤ter","Ã¼ b","es ser","Ġein mal","or g","re ck","Ġbe w","Ã ±","or m","ĠK ein","el e","ĠSo hn","ĠDar f","f ol","Ġge l","Ġg ute","sch ein","ĠT ut","Ġwar ten","ĠAn t","ĠAl s","ĠRu he","s inn","ĠL a","ĠÃ Ħ","ĠPar is","ie f","ig t","Ġda fÃ¼r","ĠNicht s","Ġw us","Ġver t","b ringen","Ġd Ã¼r","ĠI m","ĠM ach","ĠG ehen","ĠSt unden","w ort","ĠA m","Ġin teress","ĠHerr en","Ġkenn e","ĠSe Ã±","ĠSeÃ± or","a k","Ġ 5","ĠB Ã¼r","Ġsch uldig","Ġver h","ĠEin en","Ġkl ar","Ġje den","k a","k o","Ġ eben","ĠW issen","Ġb eh","e d","z eit","ĠE x","ĠN och","el en","rei ben","ĠFrau en","Ġgro ÃŁ","Ġgern e","ĠLu ft","ich en","ĠD e","ĠH and","Ġf est","Ġn un","au t","it ten","Ġauf ge","Ġr ei","all en","Ġhei raten","ĠJo y","ĠS icher","ĠK om","ur t","Ġo ben","o u","l er","al ten","et ten","Ã¤n de","il d","ĠJahr e","v e","ĠS y","lo ss","er st","ĠW elt","ĠE l","ĠG anz","ĠR ei","Ġbe z","ĠKa ffe","b es","Ġ 4","ĠS ache","Ġh och","Ġb et","ĠB en","Ã¶n ig","Ġvor bei","ĠE u","ĠB lei","eh n","ĠP o","ol d","Ġr unter","Ġbei de","ĠweiÃŁ t","Ġ eg","Ġs age","ei ra","Ġer war","ĠV on","Ġbe vor","Ã¤n der","stell en","Ġson st","in gt","ĠD och","es sen","Ġk Ã¼","Ã¤ sst","ĠH och","et te","ĠDie se","ĠFr anz","ĠPol iz","h i","ĠA ut","ĠB ist","stell t","ĠGen er","er r","ein t","ei st","ĠI de","ar m","it zen","et ter","Ġsch a","hn t","ĠV o","ĠO k","ĠBe f","ĠMin uten","f on","i f","l os","Ġm ache","ĠM am","ĠN ie","ĠT age","Ġver d","Ġdr an","st Ã¤nd","ĠM aschine","Ġg ab","Ġda bei","Ġhin ter","wo hl","Ġs ah","ĠI r","ĠM ad","Ġg lÃ¼ck","Ġver rÃ¼ckt","ut z","Ġst immt","Ġab ge","Ġb en","Ġge kommen","ĠF rage","ĠO n","ff iz","bl em","Ġschw er","Ġha bt","ĠF il","de l","ĠL assen","Ġbei m","Ġander s","Ġwus ste","ĠW ollen","ĠD on","ĠH Ã¶r","Ġge be","ĠK rie","Ġf inde","lich er","r un","s icht","ch er","ĠK an","Ġf rei","eh me","ĠR it","ĠZ wei","Ġverst ehen","Ġkonn te","u cht","ĠS agen","Ġh Ã¶r","ĠW el","Ġsein en","ĠGe b","Ã¤r t","h ung","r at","au en","ĠA lle","ĠB ru","Ġver m","Ġher aus","i ff","n ehmen","ĠS er","ĠK Ã¶nig","ĠFr ank","Ġwen ig","Ġb ald","Ãī ich","ĠIhr en","ĠGe d","ĠAr t","ĠGr und","f ft","l assen","r Ã¶","Ġdein en","ĠMr s","Ġtrin ken","Ġeg al","Ġs ehe","ĠM acht","sch t","ĠT e","Ġhat ten","Ġt re","oll e","la ge","uld igen","zeu g","a ÃŁ","Ġd rin","ei den","icht en","hr t","Ġge k","Ġf ast","ann t","ĠJa hren","ĠVer t","Ġste hen","Ġent sch","Ġneu e","a Ãī","d acht","i ser","Ġd rau","Ġn ett","Ġein z","Ġg ing","Ġver k","ĠPro blem","m ann","ĠW or","ĠW under","ĠmÃ¶ glich","ĠHau pt","as e","Ã¶ s","ĠN amen","Ãī e","Ġt ot","am p","ĠC om","ĠC ap","ĠhÃ¤t ten","Ġblei bt","Ã ©","ĠW ann","ĠW ort","ĠM ord","Ã¤ l","ĠH Ã¶ren","Ġz w","Ã¶ re","Ġsch ick","Ġt Ã¶","rie ben","Ġbrau che","ĠHil fe","eira tet","h le","ĠF am","um en","ĠSch Ã¶n","ĠUn ser","ĠGen au","ĠdÃ¼r fen","Ġw Ã¼n","ĠE ssen","et er","Ġf ur","ck e","iel t","Ġgew esen","bl ick","ahl en","w Ã¼r","Ġw ichtig","Ġes sen","hn ung","ĠT r","ĠSch on","ĠZ ie","Ġbe de","Ġbe kommen","hl en","Ġsp ielen","Ġkl ein","ĠNe w","run ken","Ġw el","or k","ĠK am","Ġdar Ã¼ber","ĠIde e","p s","Ġ Q","ĠW eil","ĠG rÃ¼","ĠB Ã¼","Ġsch lafen","ĠSt unde","Ġsein er","Ġlie gt","eil en","ĠEn de","ĠFÃ¼r st","ĠFam il","p h","on der","Ġf ahren","ien st","ĠGer icht","ĠM esser","ĠG ro","ĠG lau","al s","ur z","ĠVer st","Ġbrau cht","ĠBl ut","ĠPoliz ei","n y","in ner","Ġs ter","Ġn a","Ġf al","ĠT ele","ĠP ier","at h","Ġwar st","ĠZ eu","ĠKÃ¶nn en","ĠOn kel","Ã¼ gen","Ġb r","Ġl eid","ĠIhr er","ige s","pp en","Ġgef unden","Ã¼n f","Ġ2 0","d on","p fen","au ft","ber g","ĠV ielen","ĠPap a","ĠGener al","w eg","Ġs eid","ĠM Ã¼","ĠA t","ĠF ein","eu er","le gen","ĠO ffiz","Ġal te","Ġp ro","ul ein","wei se","ik an","rÃ¤ ulein","ĠMik i","u ter","Ġ en","rin k","Ġst ar","ĠWo her","Ġbis schen","ĠKa iser","Ġd e","ĠF rÃ¤ulein","Ġer sten","Ġso gar","gel n","ĠWei hn","Ġho ffe","ĠY ork","ĠWahr heit","i o","Ġ ehr","Ġn Ã¤ch","un kt","ĠE uch","ĠH alt","ĠB ar","ĠF ehl","rÃ¼ck e","Ġbest immt","s k","u mmer","ĠG ar","ĠB un","ĠN eu","Ġver g","Ġver sp","ĠVer g","sten s","m lich","an e","ge sch","Ã¶ ff","ĠT on","ur ch","ĠSt ra","Ġru hig","hau pt","ĠTele fon","ĠS eit","ĠSch la","ĠZ immer","Ġdar auf","kl Ã¤r","ĠwÃ¤r en","ĠBÃ¼r o","ĠFil m","ĠSer ge","Ġn ehme","ĠH eute","ĠG ra","ĠF e","Ġg uten","Ġet wa","Ġschle cht","ĠglÃ¼ck lich","ĠSerge ant","f el","h aus","u b","ĠW at","ĠM us","ĠG ib","Ġf r","Ġl Ã¤sst","ĠP eg","ĠSch atz","ĠC l","Ġal t","ĠSp iel","ĠWei ÃŁt","ĠGesch Ã¤ft","ĠÃĦ r","ĠKaffe e","ĠQ u","Ġ end","ĠD inge","au er","ĠB ill","Ġf ragen","Ġver schw","ank en","Ġgew orden","w alt","ĠS um","ge gen","ĠG l","ĠG eist","s el","ĠM achen","ĠH in","ĠB rie","Ġl ass","ĠR icht","ĠSch loss","Ġo ft","ĠHerr n","lo ÃŁ","Ġgef Ã¤llt","Ġje der","Ġverl assen","ĠSy b","Ġster ben","d lich","s uch","as che","Ġun ten","Ġre de","Ġdein em","ĠJo ey","Ġflie gen","ĠBun ny","Ġi s","Ġbe k","ĠPl atz","ĠOber st","m an","w ie","Ġh Ã¤lt","Ġb l","Ġein s","ĠK u","ĠF u","ĠT h","enn t","ĠJa wohl","Ġbe komm","cht ig","ĠRo ck","Ġversu chen","ĠBef ehl","ch st","ĠW y","ĠD ir","ĠM ich","ĠN ehmen","Ġver w","Ġre icht","ion en","Ġkl eine","Ġle icht","ĠSum ner","a in","m acht","ĠD es","ĠH oll","Ã¶ ll","ĠN imm","ĠT or","ĠSch u","Ġwar te","ĠO b","Ġsein em","imm en","isch er","ru ck","a te","l and","er k","ie ÃŁen","ĠW ochen","Ġb Ã¶","ĠN ame","ĠJ an","Ġihr en","ĠGes etz","ĠFre unde","ĠMam a","ĠPier re","ĠWy att","d es","er in","ge f","ĠE t","Ġer k","Ġver b","ĠP art","ĠAu ch","ĠSp r","Ġgro ÃŁe","ech s","g ang","v oll","ch mal","er l","Ġh Ã¼b","on s","ĠK ar","ĠK rank","ĠL o","Ġver lie","at te","ĠWar te","ĠCh ar","ĠKrie g","m Ã¶","n st","w egen","ĠW Ã¼r","Ġf ort","ĠU r","Ġj ung","ol z","ern t","Ġwoll ten","Ġgesch ehen","ĠGesch ichte","ĠMen sch","Ġeigen tlich","Ġkrie gen","ĠFehl er","Ġk om","ĠK n","Ġf l","Ġer sch","och ter","rie den","est er","Ġmach st","ĠNie mand","ĠFamil ie","ĠWat son","a ck","a bt","i ot","ĠD ame","ĠM e","ind et","ĠSch wei","ĠC ar","ĠWar ten","Ġher um","Ġander es","inn en","ĠKomm t","k eiten","an c","ĠD ein","ĠH Ã¤nde","ĠK Ã¼","re ten","ĠT ochter","ĠC he","Ã¤n gt","Ġunser en","Ġletz te","w Ã¤rt","y s","Ġw Ã¼","ĠS l","Ġk urz","ĠH ey","ĠG em","or i","ĠDas s","at ur","Ġunser er","ĠSe k","ĠHo tel","ĠOr t","ĠSei te","ĠVo gel","i bl","m achen","o d","o p","y p","Ġd au","ĠS h","ĠS achen","Ġh e","ĠF Ã¼","och e","ĠZ ug","Ã¤n ger","he k","ĠSp aÃŁ","onn en","ĠAugen blick","ĠPfer d","schein lich","iot hek","ibl iothek","b el","o w","t eil","ein ander","ĠM ill","Ġer ste","Ġsch eint","ĠP er","ig ung","at ten","ist en","Ġmu sste","ĠEntsch uldigen","ĠVerzei hung","org an","ĠWeihn achten","wÃ¤rt s","o gen","z i","ĠS Ã¼","ĠS on","Ġb el","ĠA le","ĠL ei","Ġer le","ĠT he","ag an","ĠIhr em","Ġp l","ĠGe ben","us st","ĠGeh t","ĠKl ar","zie hen","t ag","z immer","ĠS u","Ġk rank","it ze","Ġer w","pf er","ĠFl ann","Ġgro ÃŁen","rot z","ĠBru der","ĠGro ÃŁ","ĠSchla f","u tet","Ġ c","ĠS el","Ġh olen","ir m","Ġge g","ĠK ont","mm ern","ĠF ern","Ġdu mm","ĠL ind","ĠP au","ĠDie s","imm el","Ġkomm st","ekt or","Ġwunder bar","ĠfrÃ¼ h","f ahren","o ssen","er v","ĠS orgen","ĠB ahn","Ġau ÃŁer","ĠF ragen","Ġan f","and ante","ĠCom andante","Ġend lich","ĠFlann agan","a i","h Ã¶ren","k ehr","o b","ĠM ot","ĠJ ungen","eh m","ur m","rau en","ĠZ ig","is k","ĠC ol","Ġr icht","ĠÃ¼ber haupt","ĠMa c","Ġwur den","w or","ĠSie h","ĠA h","Ġk aum","Ġf Ã¼nf","ĠZ um","ĠSt immt","Ġbrin gt","Ã¶ll ig","f te","k st","o st","u d","es se","Ġk Ã¤m","hr e","or n","ĠN ummer","al e","ĠL ad","ĠWas hi","ĠVer b","ĠAu ÃŁer","ĠGe orge","ĠWa ffe","ĠWashi zu","d u","f ahr","o ck","z ug","Ġ 8","Ġw ann","Ġau ss","ĠF ahr","ut zen","Ġhier her","Ġsp r","Ġkein er","Ġzie hen","Ġsu chen","fol g","amp ag","m itt","t o","t sam","ĠS a","ier ig","Ġt ue","anz en","Ġ1 5","Ġnie mand","ĠJo b","Ġgest ern","ĠerzÃ¤hl t","ĠKan one","ĠtÃ¶ ten","i Ãī","Ġ 7","ĠE m","Ġsch lie","ig keit","ĠR eg","ĠR ichtig","rau m","Ã¤n g","ĠWo hin","lo ssen","Ġverst anden","ers Ã¶n","g a","ĠS etzen","ĠS old","ĠD oll","ĠH Ã¶","ĠB ro","ĠF euer","ier te","ĠL on","Ã¶r der","Ġlie ben","Ġverl oren","ri d","Ã¤ch lich","ande l","Ġletz ten","Ġdrau ÃŁen","o ten","in k","Ġw i","ei g","ar bei","hr er","ĠH eil","ĠJ ul","Ġsch reck","ĠT ats","ur en","Ġsie hst","Ġall en","lau fen","ru ch","ĠGes icht","Ġganz en","Ġhei ra","br ochen","ĠKrank en","ampag ner","h ol","u fen","z a","ĠW oche","Ġein ige","Ġun be","ĠK r","ĠF en","ĠF in","re u","ĠT yp","ĠP at","ĠP ass","enn y","ern en","rei bt","Ġher ein","ick t","Ġgef allen","na hm","schl agen","ĠWill st","ĠSel bst","ĠZig ar","b ung","f ten","t ain","Ġ te","Ġs etzen","Ġs echs","an ce","ĠH immel","Ġge geben","ĠT a","Ã¤r chen","ffen tlich","inn ern","Ġverl ieren","ĠGesch w","v o","un k","ĠW ein","ĠD amit","au ber","Ġb loÃŁ","ĠH unter","ĠH elen","ĠB ank","ag er","ĠWir klich","Ġal ten","Ġihr em","ĠAn d","ĠAu ss","imm e","Ġ1 9","ri ff","ĠMar lo","ĠfrÃ¼ her","ĠFe ste","a z","i ane","Ġ rÃ¼","un ft","ĠW e","ĠD an","ĠM au","ĠH el","Ġge dacht","ĠJ ungs","ĠL arry","Ġver n","is st","Ã¼t zen","Ġe x","ĠTo d","Ġson dern","ĠerzÃ¤hl en","Ġlei der","Ġinteress iert","ĠEu er","ĠMus ik","ĠhÃ¼b sch","f er","m ei","ĠW en","ĠH ei","ĠB rÃ¼","ĠL icht","ĠT ante","ĠSch au","Ġo ffen","os a","rei s","sp iel","Ġdein er","ĠLie bl","Ġsag st","Ġsel tsam","ande lt","Ã¤nder t","ĠMad ame","ĠCap tain","ĠLad y","ĠFen ster","ĠLiebl ing","i te","in o","ge s","ĠD urch","Ġb itten","Ġg uter","ĠT ja","isch es","ĠGe gen","ĠAr zt","ĠÃī ie","im a","ĠSchw ester","Ġjem anden","Ã¶t ig","Ġlhr e","Ġverh eiratet","Ġscha ffen","ĠÃĦr ger","i x","j e","Ã ¡","Ġd rÃ¼","Ġs itzen","Ġw e","ĠS orge","ĠA mer","ĠH al","or f","ach sen","Ġg rÃ¼","Ġg rÃ¶","Ġbe sten","Ġda gegen","Ġ1 2","iss i","ĠEn gl","ĠHo f","ĠSl im","w ill","Ġ 6","Ġ Ã¼","st anden","ĠS an","ge bracht","ĠB est","ĠB rÃ¼cke","Ġzu f","Ġver s","ĠP u","ĠEr folg","ĠDie ser","ro m","Ġbei den","Ã¼n d","ze ich","Ġsag ten","Ġeu re","ĠMik e","ĠWa ffen","ĠAut o","Ġtre ffen","Ġfal sch","h Ã¶rt","ĠS al","ĠD rink","Ġb em","ĠM organ","Ġv Ã¶llig","ĠE hren","ĠB uch","ĠF rÃ¼","ĠF ot","ĠP r","rau t","Ã¤n gen","lei d","ĠAr me","eil ung","Ã¼n ft","mal s","Ġje de","stell ung","Ã¤u ft","Ġlang sam","ĠRit a","Ġbede utet","ĠFu ÃŁ","mÃ¶ glich","ĠAle x","g o","r as","r itt","Ġn eben","Ã¤ hren","ĠG leich","ĠN ase","ĠL asst","Ġa ÃīÃī","Ġden en","ur s","Ãī s","ro h","is on","il f","ort y","wei sen","Ġlie b","Ġste llen","ĠCh ampagner","ation en","ĠFlug zeug","schie d","Ġversu cht","ĠbÃ¶ se","a kt","m ord","r ochen","z er","Ġ 9","ch ter","Ġh ol","ĠM ehr","Ġz ehn","ĠSch nell","ra mm","ern e","Ġp asst","ĠZeit ung","ĠGeh eim","ĠGef Ã¼","ĠAnt wort","ĠTage s","ĠGlau ben","ĠStra ÃŁe","l ung","p an","u h","Ġ em","Ġn e","ge w","ei ge","ĠW agen","ĠD eine","ĠE v","ĠH und","Ġf ol","Ġl au","Ġl aufen","den t","den ken","re d","ĠSch uld","ill e","eg t","rin g","ĠÃ¼ber all","ha ft","Ġschl imm","ĠfÃ¼ hl","Ġzie mlich","Ã¤hr t","ĠRei se","ĠEu re","ĠLon don","i ft","p e","s ichtig","ĠS eine","ĠD ienst","or ro","ĠT agen","Ġt rotz","le gt","Ġbe ste","Ġr um","ff el","ĠHa b","ho w","ĠIr gend","ĠMarlo we","f r","Ġ el","en s","ĠS issi","ge kommen","ĠW ald","te te","ĠM il","ĠH Ã¤t","Ġge bracht","ĠB ab","ĠK erl","Ġl asse","um e","ĠZ orro","Ġbe d","ĠO K","Ġihr er","iss e","ĠÃĮ ad","reich en","ĠBlei ben","Ġerwar tet","ĠTon i","f orm","o le","s h","ie ten","Ġz eigen","it ter","ĠB ibliothek","ĠK orty","ĠR Ã¼ck","am b","Ã¶r per","Ġbes onder","ien en","ĠRu f","ĠSte lle","ĠSte ve","ĠGott es","ĠMÃ¶ chten","ĠhÃ¶r te","klÃ¤r en","ĠChar lie","b ald","i ps","p ro","p ft","Ġn Ã¶tig","Ġh Ã¶rt","ĠD ort","icht et","ĠM ut","ĠG ibt","Ġsch reiben","ur g","itte l","Ġvor ge","Ã¤t ze","Ġp ersÃ¶n","Ġgut es","ĠSp inn","ru ppe","ĠRe v","ĠLie b","ĠNach richt","Ġbrin ge","ĠChe f","k unft","o v","z lich","an i","an gt","ĠW etter","or mal","ĠB au","ĠK on","ĠP il","ĠUn sinn","all e","rei fen","ik er","eil t","itz t","Ġeigen en","schie den","Ġzw ischen","ĠBrie f","ĠJan et","Ġverlie bt","ĠLind berg","ĠDoll ar","ĠAnd re","Ã¤hren d","A R","o hlen","st ehen","Ġh Ã¶","ĠD ing","ir l","Ġb auen","ĠM ig","ĠM ag","Ġv ier","Ã¤ hn","gen ommen","ĠB in","ĠB ra","ĠN ot","ĠK osa","ĠF rei","sch te","eh er","Ġer lau","Ġer innern","ĠT re","ĠP la","Ġwar tet","ĠEr de","ĠfÃ¼r chte","kt iv","ik a","la den","ĠAr iane","Ġkl einen","ĠSchl Ã¼ss","Ġerf ahren","ĠSyb iÃī","ĠdrÃ¼ ben","ĠLindberg h","d ig","r ig","r agt","in a","st ag","ĠI mmer","ĠH u","it a","em and","ĠEr st","ĠDie go","wei s","ad o","Ġdes halb","Ġkenn t","amm t","ĠCh ance","ĠJe an","ĠJe der","we b","ĠPfer de","ĠKam pf","ĠBar on","Ġdau ert","ĠSpinn web","k i","p ort","v at","ie s","ĠS etz","ĠE is","Ġun g","ĠF lie","Ġer t","lich es","Ġt ust","ra f","cht bar","Ġst ill","Ġunser em","ant wort","uld ige","ĠSei en","ahn sinn","ĠEl tern","ĠWel che","ath y","ĠZeu g","ĠTh om","ĠGeorge s","A C","f rau","u el","u ck","z ogen","en den","er e","it ion","ĠN Ã¤","sch Ã¶n","ĠR ad","Ġt oll","Ġda ÃŁ","ĠVer schw","ĠAn walt","Ã¤n dern","Ġlie gen","ĠwÃ¼rde st","ver stÃ¤nd","ĠAll ison","ĠBes ch","fall en","mitt ag","I one","m it","s etzen","ie ht","st ern","Ġw orden","Ġm el","ge t","ĠD amen","Ġk m","ĠG el","ĠF ei","eh lt","Ġsch ieÃŁen","Ġver ha","ĠSch iff","Ġt o","ĠO hne","ĠSt a","ĠEin s","lo gen","Ġhei ÃŁen","ĠFÃ¼r sten","ĠGef Ã¤ng","uldig ung","Ġschnell er","ĠfÃ¼ hren","fall s","id ay","ĠCo Ione","ĠGrÃ¼ ÃŁ","ĠFein d","ĠHoll iday","ĠEt was","ĠPer son","ĠThe ater","ĠSold aten","ĠCoIone I","i ce","u de","w ell","Ġ Ã¶ff","er kt","Ġd an","Ġs ingen","ĠS how","Ġn Ã¤","ei le","ĠW egen","ar en","ĠM c","ĠG ast","ĠK ell","Ġer inner","em ann","ĠT om","ĠT isch","Ġver ste","ĠV in","ĠR est","Ġauf re","Ġt ragen","ĠZ ur","Ġgeh st","ĠC hr","ĠSt u","ĠSt Ã¼ck","Ġmein es","Ġdir ekt","all s","ĠHer zen","ĠÃ¼ber ras","Ġst att","Ġsp richt","ĠHa bt","Ġgew Ã¶","Ġgesch rieben","ĠJo hn","art ig","su cht","Ġho le","ĠUnser e","ĠOffiz iere","ĠGefÃ¤ng nis","n ern","r on","r asch","s sten","Ġ ch","Ġs Ã¼","an s","ĠW hi","au sen","ar e","ĠM und","Ġv ie","ĠE i","ĠA d","ĠB ern","ĠK ut","ĠF or","Ġf Ã¤llt","Ġf rag","Ġer klÃ¤ren","re ch","ĠT anz","ĠP ips","Ġj unge","Ġt rÃ¤","Ġp er","ĠWo zu","Ġman chmal","Ġges p","Ġ1 00","ing s","ĠLeben s","ĠSte ll","ĠGef angen","ĠAnge Ãīe","Ġgeb oren","ĠGeb urt","ĠProblem e","ĠWor te","ĠBÃ¼ ffel","ĠnÃ¤ch sten","Ġanf angen","Ġwi ÃīÃī","ĠBab y","ĠÃĮad chen","ĠMig uel","ĠWhi te","M M","b uch","h olen","ĠD em","ĠE MM","ĠA hnung","it y","ĠK ap","Ġzu erst","ĠJ u","Ġl a","Ġl esen","ĠSch n","Ġt ief","am als","Ġwie so","Ġmein st","Ã¤n gst","il a","ĠWo hnung","Ġges und","Ġlie bt","Ġviel en","Ġdar um","ĠLie ber","Ġhei m","ahl t","Ã¼t te","ĠSchl uss","Ġneu en","ĠBl umen","ho f","ĠÃľber rasch","AR AC","ĠEMM ARAC","Ġm och","ll er","Ã¤ del","it sch","ĠB Ã¶","ĠL au","Ġauf s","Ġgeh abt","Ġda hin","Ġall em","Ġo k","Ġal ter","ĠAn g","ĠkÃ¶nn t","lau b","Ġher r","ĠSp an","ru fen","ri ft","ÃīÃī e","di ent","Ġwel che","Ġna hm","ĠSon st","h Ã¶","h il","o k","s y","u f","ĠS ein","ĠA k","Ġk aufen","ĠG irl","ĠB u","ĠB el","ĠB om","Ġf and","Ġf ahr","Ġl ust","ss e","Ġer nst","Ġver ab","le ben","ro ffen","is a","Ġall eine","ĠVer w","Ġsoll st","ĠÃ ģ","ĠÃ ĸ","sp rechen","pp t","Ġglau bt","ĠPro f","ĠGr isch","schl ag","ĠKÃ¶nn ten","ĠHoch zeit","ĠRit ter","ĠGed anken","ĠTe e","ĠAmer ikan","Ġtrotz dem","er ken","in ken","ie sen","st o","ĠS am","Ġh art","ĠE ar","ĠA pp","Ġha lt","ĠH ol","ĠJ enny","ĠL eu","ĠL ou","Ġsch m","Ġden kt","ĠT u","ĠVer h","ĠVer lo","ĠAn f","Ġsp iel","ĠWo hl","Ġwo hin","ĠmÃ¼ de","ĠBe d","Ġbrau chst","ĠhÃ¤tte st","Ġgem ein","inde st","ĠAnge le","ĠEntsch uldigung","ĠVert rag","Ġgeg angen","ĠGirl s","b ahn","g ie","p a","ch es","Ġn ormal","Ġh Ã¤ngen","ĠW h","ĠW ien","Ã¼ g","it Ã¡","ĠK ir","ĠK im","sch n","Ġf roh","ĠJ ung","Ġl Ã¤nger","Ġl Ã¤uft","Ġsch en","ĠT eu","ĠV ier","Ġt anzen","Ġwer t","Ġre ich","Ġ1 8","ĠmÃ¼ sste","Ġent f","Ġsollte st","ĠHil f","Ġrei zen","ĠMill ionen","ĠrÃ¼ ber","ĠMil ch","ĠKosa ken","itÃ¡ n","u chen","v ila","w ig","z in","ie gel","Ġn imm","ge b","Ã¼ gel","ĠSie hst","ĠM el","ĠE ur","Ġz er","or e","Ã¶ d","ĠJ emand","ĠL ang","Ġa t","ter t","ĠT al","ĠT sch","Ġver Ãī","ck er","ĠR ing","ĠJa ck","Ãī t","Ãī au","Ġt rau","ĠO l","ĠfÃ¼r s","Ġall er","rin gt","Ġre g","Ġ1 4","ĠMar sh","Ġhal te","ĠBr enn","Ġsol che","ĠkÃ¼ mmer","ĠCap itÃ¡n","ĠWÃ¼r de","ĠÃģ vila","a den","s ache","Ġw em","ĠS elen","Ġn immt","ĠD rei","ir k","Ġein sam","ĠE d","Ġz erst","Ã¶ tet","ĠF ol","Ġer schie","Ġer reichen","re che","ĠP unkt","ĠZ e","ra d","ĠEin er","ĠVer d","ĠVer such","Ã¤n e","kt ion","Ġst olz","ĠHa be","im ent","Ġgef Ã¤hr","ĠGr en","iv e","Ġbereit s","ĠHaupt mann","Ġfur chtbar","ĠGl as","ĠRicht er","ĠThom as","ĠSelen a","f in","p rÃ¼","v en","w ischen","en e","ie t","un e","ĠI ke","ĠH m","Ġun mÃ¶glich","it Ã¤t","Ġl ernen","el b","Ġso ÃīÃī","Ġan t","um p","ĠSch ul","ĠDu mm","ro he","ĠVer rÃ¤","ĠAn k","ĠAu ft","rin ken","Ġvor her","Ġab zu","inn t","ĠFre ude","Ġverl angt","ĠMein ung","kl ag","ĠLu isa","Ġfre u","pr ochen","ĠGew ehr","Ġbez ahlen","ĠkÃ¼ mmern","Ġschick en","ĠDes halb","ĠAuÃŁer dem","mei ster","Ġzuf rieden","ĠChr ist","a il","p iel","r t","u i","Ġ ro","Ġ qu","Ġ Ã¼b","ĠM ist","ĠE he","ĠH Ã¶rt","ĠB eg","ĠK la","ĠK ino","el be","ĠP e","ÃŁ lich","ind ung","ĠR aum","ĠSt ock","ĠSt imme","acht s","Ã¤t z","ick s","ick en","ĠRe gen","Ġgew usst","ĠWei ÃŁ","Ġgro ÃŁer","ĠLe on","fl ug","Ġvoll er","ĠWahr scheinlich","ĠKom p","Ġbet runken","ĠBlei b","Ġeinz ige","ĠwÃ¼n schte","gef Ã¤hr","ĠFern s","ĠGeschw oren","Ġem pf","ĠAng riff","ĠAnf ang","b te","r et","r eit","w ald","Ġd amals","ich e","Ġs a","ĠS onn","ĠI di","ar te","ĠE id","ĠA za","Ġk ost","ĠN Ã¤ch","ĠK Ã¶rper","al en","Ġver ge","ĠSch ne","ĠEr inner","ĠZ Ã¼r","ol ut","Ġlie bst","Ġnie der","Ġverst eh","ĠSe e","Ġger e","Ġget Ã¶tet","ĠLu c","ĠNach mittag","ĠBes ser","ĠAnge klag","komm t","ĠSicher heit","ĠZeu gen","ĠOffiz ier","Ġstar k","ĠBill y","Ġbekomm t","ĠSek unden","Ġvern Ã¼nft","Ġdan ach","Ġlust ig","c ia","s a","z ess","Ġw eh","an ten","Ġm ei","Ġm erk","ĠD ad","Ã¼ ge","es p","ir e","it o","ĠB ild","ĠN ich","ĠN atur","ĠF err","Ġf indet","ĠJ un","Ġsch rei","Ġden kst","ĠV iel","ĠSch rei","ĠO t","is e","Ġst and","rie b","ĠIn form","Ã¤r m","ger ufen","uten ant","ĠLie bes","ĠLie utenant","Ġje dem","Ġverl etzt","ĠVor wÃ¤rts","Ġwollte st","Ġget runken","ĠMÃ¤n nern","ĠMaj or","Ġwen iger","Ġgegen Ã¼ber","pr es","Ġbeh alten","ĠVo le","Ġehr lich","ĠLei der","ĠkÃ¤m pfen","fahr t","ĠEm pf","Ġschreck lich","ĠTeu fel","ĠAnk lage","ĠLeon ard","b all","g r","h eiten","j ekt","t ra","Ġ Ã¶","Ġ eher","Ġs itzt","ĠS ol","ĠSie ht","ĠM o","ĠM eter","Ġk Ãī","ĠG old","Ġun ver","or gt","ĠB eh","ĠK leid","ĠP rin","Ġgeh Ã¶ren","Ġwer det","ĠDa fÃ¼r","ĠAl arm","aus piel","Ġhin ten","im p","Ġgef ragt","Ġverst eht","Ġgesch a","Ġkenn st","Ġblei be","ĠKl ein","ĠDar um","Ġpass ieren","Ġfre und","ĠDir ektor","ĠwÃ¼ sste","ĠMot or","ga be","ĠGefÃ¼ hl","ĠÃľberrasch ung","ĠFerr ante","l agen","p rÃ¤","t on","u er","u ff","Ġ [","in s","ie ÃŁ","as chen","an a","ĠA ha","Ġk amen","Ã¤ cht","ĠH ut","ĠH amb","Ġz ahlen","ĠK un","Ġf alls","ĠT rau","ĠT eil","ĠT im","Ġver sch","ĠU ri","ĠSch m","ĠC ity","ĠSt ein","ĠVer l","ĠVer gessen","Ġum ge","ĠÃ¼ber zeu","ĠWer k","ĠRe den","ien ten","hal t","arr en","ĠschÃ¶n e","ĠMan tel","ĠRu ss","su chen","Ġru fen","ĠBer g","ĠfÃ¼ hle","ĠFall s","Ġirgend wo","ĠEx ze","ĠPo st","Ġrede st","ĠPau l","ĠDies es","ĠAuss age","zeich net","ĠArme e","verstÃ¤nd lich","ĠnÃ¤ her","ĠTsch Ã¼ss","ĠOt to",". .","e ck","f ach","f ern","i or","m us","o ur","r es","s b","y n","z ent","st eigen","ĠS inn","Ġn ennen","ĠE h","ĠE hre","ĠH ung","ĠN ord","sch elb","Ġf a","Ġver dient","ig keiten","ĠSch auspiel","Ġauf zu","Ġt au","ĠUn gar","etz te","ro ck","ĠAn dr","Ġvor sichtig","Ġst o","Ġbes uchen","ĠRe de","ĠFl asche","ha ber","end et","war d","ĠBes onder","fÃ¼ hrer","ĠNe bel","Ġfre ue","ĠKann st","Ġbede uten","ĠGra f","Ġbek annt","arbei tet","ĠTats Ã¤chlich","nahm e","ĠÃ¼ br","ĠVerrÃ¤ ter","esp ekt","ĠHung er","n Ã¼gen","Ġ ei","Ġ Ã¤ndern","un t","Ġh Ã¶re","ĠW and","Ã¼ te","ĠM Ã¤del","ĠA gen","Ã¤ ss","ĠH i","ĠG ina","ĠB et","ĠN ick","ĠK al","ĠF rohe","Ġl Ã¤ch","Ġer n","re cht","Ġver fol","ĠP ist","ĠV i","ut zt","ĠR a","Ġbe weisen","Ġgeh eiratet","ĠWir d","ra ft","ĠC ab","Ã¤n den","ĠÃ¼ber t","Ġwo hnt","Ġges prochen","ru f","rÃ¤ ger","ĠLie d","ĠMein en","ver standen","Ġ3 0","Ġarbei te","Ġarbei tet","llen z","Ġbrin g","Ġsu che","ĠMÃ¶ glich","Ġ5 0","ĠnÃ¤ch ste","ĠVerg iss","ĠSyb il","ĠPart y","Ġricht igen","ĠFot o","Ġbesonder s","ĠKut sche","pres so","ĠExze llenz","K en","er z","Ã¼ ste","ir n","ar s","ĠA cht","Ġge z","Ġz war","ach tet","Ġf rage","Ġl anden","re ut","ĠT rink","ĠSch mer","Ġt r","ĠEr nst","ro ss","Ġsp ielt","ĠAr bei","ĠGes chen","gel t","Ġgew ar","Ġste lle","Ġste ckt","ze ichen","ri fft","ĠMan chmal","ĠPro st","ĠGr ig","Ġschw ar","ĠPf arr","ĠMen ge","Ġle er","ĠfÃ¼ hrt","ĠBo den","ĠBo bo","Ġgeb rau","pl atz","wer k","Ã¶t zlich","ĠVerzei hen","Ġerwar ten","ĠHoch wÃ¼r","ĠWunder bar","Ġklein er","ĠKu schelb","Ġerle d","Ġricht ige","ĠFin ger","ĠaÃīÃī es","Ġfol gen","Ġper fe","Ġfahr e","ĠProf ess","ĠEar p","Ken zie","ĠHochwÃ¼r den","ĠKuschelb Ã¤rchen","a un","d ingt","f inden","g al","k am","l icht","l ang","s i","t ur","Ġ ann","ie gen","Ġw or","Ġw Ã¤hrend","ĠS imp","Ġn erv","un sch","Ġh andelt","ge g","ll o","ĠM et","ĠM Ã¶rder","ĠG Ã¤","ĠB ring","ber n","ber t","eh le","Ġl o","ehr t","ĠEin z","Ġr etten","ĠHer ein","Ġp r","ĠGe gend","Ġst eigen","rÃ¼ck en","ik o","ĠAr m","sp ruch","Ġhin ein","ĠHo heit","ĠCh ic","Ġru fe","ĠPl an","Ã¤ll ig","Ġle be","Ġwahr scheinlich","ĠBes uch","Ġversu che","Ġwunder schÃ¶n","Ġsol ange","Ġverk aufen","Ġversp rochen","andel n","reu z","je w","Ġmel den","ĠVin ce","ĠLeu ten","Ġentf ernt","Ġkost et","Ġgescha fft","ĠSimp son","a I","a v","f tet","g ung","s etzt","er ikan","st es","Ġh il","Ã¼ hrt","ll t","ĠE mm","ĠE gal","ĠB Ã¤","ĠB ier","ĠK at","Ġg l","sch irm","Ġf ehlt","ĠL i","Ġer re","Ġso bald","ĠP ad","ĠV ie","Ġj ungen","ĠUn g","am t","ĠZ us","and o","Ġwo ÃīÃī","lie gen","ĠmÃ¼ sst","Ġhei ÃŁe","Ġent de","ĠJo e","Ġsel ten","iz in","Ġget roffen","ĠDen is","ĠFreund in","Ġeigen e","ĠEntsch uldige","Ġbeg lei","Ġbesch Ã¤ft","ĠLa den","ĠBÃ¼r ger","Ġgek auft","weg s","man tel","ĠSchu le","Ġjung er","irm a","ĠGegen teil","ĠSchlÃ¼ss el","b y","k rie","m anden","m utter","r itte","v es","ĠS ollen","Ġh asse","ĠW itz","Ã¼ chtig","ĠM or","ĠE ver","Ġk alt","ĠG n","ĠG rÃ¤","Ġzu ge","ĠF er","ĠF ar","ĠT err","Ġver z","Ġver lo","ĠP ort","Ġsie h","Ġan rufen","ĠSch ade","Ġt u","le y","Ġgeh eim","Ġdass elbe","ff er","Ġsp az","ĠSo w","zu bringen","lie ben","her iff","Ġglau bst","ĠAbend essen","ĠMon ate","ĠPf und","Ã¤hl t","ĠBo ss","Ġkonn ten","Ġbef ehl","Ġdarf st","ĠDr eh","Ġdrau f","ĠRicht ung","wor ten","ĠTa x","ĠBrÃ¼ der","mord et","Ġerlau bt","Ġerinner e","sy ch","ĠLou is","ĠKir che","Ġfreu en","ĠAza e","Ġmei sten","b rechen","i tel","s etz","ch s","en sch","er lich","in en","ĠS eht","an er","ĠD orf","ir ia","Ġb ra","Ġk ap","Ã¤ ger","ĠH ar","Ġge brochen","ĠG as","Ġun sch","it u","ĠN at","ĠK urs","ten d","ĠF rieden","ĠP reis","Ġan gerufen","enn st","Ġt he","eit ung","ĠC on","Ġst Ã¤nd","Ġst ud","ĠDa zu","ĠDa ve","ige un","Ġganz es","ĠmÃ¶ gen","ĠmÃ¶ chten","Ġeu er","Ġ2 1","Ġ2 5","ĠFr anc","Ġam erikan","Ġgesch lafen","ri vat","ĠMar k","ĠSchl ag","ĠGef allen","ĠBer uf","Ġe cht","Ġirgend w","ĠMÃ¶ chte","ĠKein er","Ġgel esen","ĠMam i","ĠHin ter","ĠHoll y","Ġersch ossen","Ġunbe dingt","ĠZigar etten","ĠpersÃ¶n lich","ĠÃ¶ff nen","Ġmoch te","ĠAmerikan er","ĠgefÃ¤hr lich","ĠFerns eh","ĠZÃ¼r ich","ĠCab iria","ĠGrig ori","ĠPfarr er","ĠZus ammen","g ern","j et","m in","u ber","v ater","z ahl","Ġd o","ĠS n","Ġm achte","ĠW ind","ĠW Ã¤re","ĠW ahl","ĠW itze","es halb","ĠM atte","ĠE ben","ĠE igen","Ã¤ ck","Ġun er","or ben","ĠB on","ĠB at","Ã¶ pf","Ġg ib","sch loss","ĠL auf","Ġer kl","Ġer mordet","ĠT un","ĠT rinken","ĠP rÃ¤","ig n","Ġsie ben","ĠR aus","Ġt a","Ġt at","eu ert","eit s","le bt","ĠZ igeun","ĠEin fach","Ġvor stellen","rei ten","Ġwoll t","ĠIn di","Ã¤r en","ne y","lie ÃŁen","Ġdein es","ĠVor stellung","ĠHo ffentlich","Ġru ft","Ġneu es","ĠBer icht","wa y","Ġschl immer","ĠTo ps","Ġgenau so","richt en","ĠUnter schied","ĠZwei fel","ĠKÃ¶nig in","Ġwenig stens","ĠwÃ¼n schen","ĠZie h","ĠKaiser in","ĠKar te","ĠGem ahl","ĠKont akt","ĠgrÃ¼ n","ĠgrÃ¶ ÃŁer","ĠZur Ã¼ck","Ġgemein sam","ĠProfess or","5 0","c t","e k","f st","l ant","o se","p en","p ert","y r","y as","Ġ X","en de","ĠS alle","Ġn achts","ei tet","ĠW ade","ĠW ren","ĠD et","Ġb lau","ar io","ĠG ern","ĠG ust","or te","ĠB all","ĠN ori","ĠK ennen","ĠF est","sch er","ĠL es","eh aus","Ġsch ul","ĠT ausen","Ġan b","am a","ehr en","ro s","Ġr ie","Ġr eiten","ĠIn sp","ĠBe weis","ab el","ĠFr en","hal ter","ĠVor sicht","ĠMon ast","ĠKl eine","ĠDen k","Ã¤hl en","na pp","Ġtrin ke","orm an","if orn","Ġentsch eiden","aÃī d","Ã¤l ter","Ġklein es","ĠVerg nÃ¼gen","ĠMe er","Ġpl Ã¶tzlich","ĠSa ito","Ġheira te","ĠKranken haus","ĠBra vo","ĠSpinnweb schloss","Ġverha ftet","ĠGefangen en","ĠKim ani","ĠRing o","ĠMarsh all","ĠGeschworen en","ĠJun ior","ĠEmpf ang","ĠHamb urg","ĠEh emann","ĠAcht ung","ĠSn uff","ĠTops y","ĠNori yas","f eld","g ibt","o sen","ch o","Ġd un","ĠS en","ĠS and","Ġn amen","ĠW il","ĠM er","on en","ĠH arry","ĠG ent","Ã¶ hn","ĠN orman","ĠF ig","Ġf Ã¤hrt","der t","Ġsch n","Ġsch ade","em an","el eg","ĠT ier","Ġver raten","ĠV ent","ag o","ĠEr fahr","Ġmein te","ĠVer antwort","imm ung","Ġvor ber","isch t","Ġnie manden","ĠBe vor","Ġgesch ieht","Ġgesch lagen","ĠMon aten","ĠHo ward","Ġschw Ã¶re","ĠSchw ierig","ĠGef ahr","ĠJe ff","ĠGer e","Ġschl Ã¤","Ġe wig","schl uss","fÃ¼ hren","ĠHerz og","ko hol","ĠKaffe ehaus","Ġ4 0","ĠMÃ¼ ller","unkt ion","ĠGar cia","ĠBrie fe","ĠUr sache","ĠSchwei zer","ĠJul chen","ĠBest immt","ĠFrei heit","ĠWhite y","Ġerschie ÃŁen","ĠGren ze","ĠvernÃ¼nft ig","ĠChic ago","ĠEver ett","ĠFren ch","I I","I i","I s","P ut","f ers","l in","s f","t Ã¤u","u hr","u mm","v ert","Ġ *","Ġ y","ie ger","st et","ĠS itu","an ch","Ġn ed","ei gt","ĠW ur","ĠW achen","ĠW ilf","ĠW Ã¼ste","ĠD i","au fe","ar sch","ĠE hr","ĠE ind","ĠE le","Ġge Ã¤ndert","ĠB ein","ĠB ade","ĠB ringen","Ã¶ l","ĠK uss","ĠK reuz","et tet","Ġf in","ĠL in","ĠL age","Ġl Ã¼","ĠT eleg","Ġver zei","ĠP al","ĠP eter","ĠP rivat","ĠV ol","Ġan s","at sch","ĠR au","ĠR is","ĠR olle","Ġauf t","Ġauf hÃ¶ren","ĠEr zÃ¤hl","ĠO per","ĠSt att","ĠSt reich","ĠSt ay","ĠEin es","ĠVer stand","ĠAu ge","ĠÃ¼ber n","ĠGe p","ĠWo fÃ¼r","ĠHa ar","Ġnie mals","lie b","ĠBe weg","Ġgen ommen","Ġkl ingt","eld et","Ġent lassen","Ġhatte st","ĠMar g","ĠSchl acht","wo od","ĠPl Ã¤ne","Ġfre ut","hau se","qu em","Ġgel ernt","ko pf","ĠCl ub","ĠRock y","ĠRock well","Ġkom isch","ĠBro ad","ĠGeheim nis","ĠHÃ¤t te","ĠNÃ¤ he","ĠSpan ien","ĠTal ent","Ġtrau rig","ĠÃ¼b el","Ġspaz ieren","ĠTax i","ĠMatte o","ĠGust av","ĠSnuff y","Ġnamen s","ĠWilf rid","c o","d rÃ¼cke","k er","o ff","Ġ Ã¤hn","Ġs e","Ġs auber","st immen","Ġn ot","ĠW ahnsinn","Ġk la","ĠH eim","ĠH alten","ĠG Ã¼te","Ġun gefÃ¤hr","ĠB or","ĠB aum","Ã¶ st","ĠK er","ĠF el","sch u","Ġl aut","Ġsch Ã¤tze","ĠT urm","ĠT raum","ĠT ruppe","Ġver Ã¤ndert","ĠP an","be e","Ġan stÃ¤nd","ĠR at","ĠR om","ĠUn if","Ġgeh ol","ĠC athy","ĠSt reit","and lung","ĠVer s","Ġlie f","ĠIn ter","Ġab s","Ġ1 1","Ġ1 3","ĠAl kohol","ĠBe ste","ĠRe ch","Ġglau b","ĠFl uss","ĠAuf gabe","Ġblei bst","Ġunter wegs","ĠWei ter","Ã¼t ig","ĠAb schied","ĠGef Ã¤llt","Ġwunder voll","hst Ã¼ck","ĠSoll te","Ġinteress ant","ed izin","Ġbez ahlt","Ġben utzen","ĠTe x","Ġehr en","ĠNeu igkeiten","gesch ickt","ĠwÃ¼ tend","Ġspr ach","ĠHeil ige","ĠgrÃ¶ ÃŁ","ĠHof rat","ĠPu bl","ĠRÃ¼ck en","ĠPil oten","ĠAndre as","ĠVier tel","Ġreizen d","ĠIdi ot","Ġei fers","Ġgewar tet","ĠGÃ¤ ste","jew itsch","ĠUng lÃ¼ck","ĠstÃ¤nd ig","ĠNoriyas u","d aten","l en","m el","o ss","p assen","p asst","r oll","z te","z ul","er weise","st Ã¼ck","Ġw icht","au p","ir gend","Ġge arbeitet","Ġz eige","it er","ĠB rau","Ã¶ sen","ĠK il","ĠF Ã¼nf","Ġg Ãīau","ĠJ im","Ġl Ã¤ngst","ann on","Ġer fÃ¼","Ġso wie","ĠT ru","ĠP aar","Ġmit nehmen","ĠR itz","ĠSch uldig","ĠEr klÃ¤r","ra fen","ĠSt ar","Ġmu ÃŁ","rei se","Ġst immen","und et","Ġander er","ĠÃī hr","ĠEn dlich","Ġhin aus","Ã¼n st","Ġbis her","Ġsel ber","iz iert","ĠMit t","ĠKa te","ĠAb ge","ah le","Ġschl Ã¤ft","Ġir ren","ĠwÃ¤r st","ĠBei spiel","ren g","Ġsei en","Ã¤m lich","ĠBr ille","Ġirgend wie","Ġschle chte","Ġlhr er","ĠGew issen","ĠPo sten","wÃ¼r dig","ĠKam er","ĠNeu es","ĠCl ant","Ġbekomm st","ĠDes wegen","ĠTor res","ĠSpr it","abt eilung","Ġdau ern","ĠSh annon","kehr t","Ġschlie ÃŁen","ĠHel m","ĠMag gie","ĠÃ¼berras cht","ĠGrisch a","ĠVerlo bung","ĠSchne e","ĠNich o","Ġfa ir","ĠNick ie","ĠlÃ¤ch erlich","ĠbeschÃ¤ft igt","ĠIndi aner","ĠMonast ario","9 9","b ild","c a","c ros","d y","i ver","k te","l ig","m ittel","o te","r y","Ġw einen","ĠW oll","te m","ĠM ei","ĠB us","Ġzu vor","mm e","ĠF a","ĠF al","ĠF ahren","ĠL utz","ss er","Ġsch lage","el z","ĠT er","ĠT asche","Ġan g","ut lich","Ġbe quem","ĠEs el","ĠDu cros","ĠVer ste","iel d","ĠAn ruf","Ġnach ge","Ġwill en","Ġkein em","ĠDa von","ĠFre m","ĠMa x","Ġunter sch","ĠMon at","ĠWei le","ĠMar ie","ĠÃĮ ann","ĠAb s","ĠZu stand","end ung","ĠPl atten","Ġle bt","Ġschl ug","ĠUm st","fÃ¼ hrt","Ġerf ol","ĠKÃ¶nn te","bo ten","Ġletz ter","Ġeinge laden","Ġflie ge","Ġbeh aup","ĠgroÃŁ artig","ĠKom pl","ĠFrank reich","olle ge","Ġentsch uldigen","ĠVerst anden","Ġfal schen","Ġen g","Ġspr ich","ink s","Ġne un","ĠBesch eid","ĠFei gl","ĠLang sam","Ġsa hen","ĠLuc as","Ġpr ima","ĠSow jet","ĠFig ur","ĠVerantwort ung","ĠSchwierig keiten","ĠGep Ã¤ck","ĠUnif orm","Ġeifers Ã¼chtig","Ġsowie so","1 0","A fe","a ben","b ier","f il","i ent","l ad","l ing","s l","s atz","u hig","w esen","Ġ acht","er i","ĠS k","ĠS onnen","ĠS mit","an o","an dem","Ġm ensch","Ġh Ã¤ngt","Ġh ilf","Ã¼ s","Ã¼ glich","Ġb Ãī","Ġb lieb","ĠM at","Ġein igen","ĠA bst","ĠA fr","Ã¤ me","ĠH als","ĠH Ã¼tte","Ġge gessen","al ien","ĠF rie","Ġg rau","Ġf ern","Ġl hnen","Ġl asst","Ġer z","Ġer ster","Ġsch ie","Ġsch me","re cken","Ġa Ãī","ĠT at","ĠT est","be f","ut t","ĠU S","enn e","ĠSch reibt","Ġt raf","le ver","ĠZ w","ĠZ ahn","ĠO hr","Ġgeh Ã¶r","ĠC or","ĠC omm","ĠSt urm","Ġr isk","om it","was ser","Ġst ir","Ġst Ã¼r","Ġre det","her s","Ġunser es","Ġhei ÃŁ","Ġgef euert","ĠFre ut","Ġent lang","ĠMon d","ha fen","ĠSe ele","Ġrau f","bar en","Ġgleich en","Ã¼t ze","ĠSchl imm","Ġjem andem","ĠGer aÃīd","ĠBer gen","Ġschl agen","Ġgest ohlen","ĠFlug hafen","Ġtrin kt","Ġkrie gt","ĠMin ute","ĠBr and","Ġsol chen","Ġschle chter","Ġlei sten","ĠBett y","dr ehen","pr ess","Ġbew iesen","Ġvert eid","ĠDe ut","Ġverk auft","wÃ¼r d","ĠZie hen","ĠAt om","Ġfl ucht","ĠGem ein","ĠMac Afe","Ġte le","Ġwe der","ĠFrÃ¼ hstÃ¼ck","Ġel f","ĠFlie ger","ĠRad ar","ĠSta ats","ĠKell ner","Ġschen ken","Ġfreund lich","Ġnerv Ã¶s","Ġhil ft","ĠPad re","Ġunsch uldig","ĠMÃ¶chte st","iforn ien","ĠGent l","Ġvorber eitet","Ġy ou","ĠEind ruck","ĠTeleg ramm",", ..","E N","S ch","a x","b on","b ot","b ieren","d ge","e zi","h el","m Ã¤","p or","p unkt","w agen","y le","ie te","ich ard","Ġs orgen","Ġw ahnsinn","ĠS c","ĠS ant","Ġm erken","ge ist","ge legt","Ġb ill","ĠM asch","Ġein zu","ĠA pr","Ġk r","on d","Ġge stellt","Ġun ge","ĠB ord","ĠK Ã¶","ĠK athy","al ter","sch ungs","sch lossen","et h","Ġf ei","Ġf angen","Ġf ehl","ĠL och","ĠL egen","ĠL Ã¼gen","ĠL Ã¤rm","Ġer h","Ġsch au","Ġsch lau","ut ler","um t","ag d","ĠR ichard","ĠJa pan","Ġt ats","Ġbe stellt","ĠEs presso","ra ck","ĠVer m","ĠVer n","ĠAn na","ff net","rei sen","ik en","ik um","ĠmÃ¼ ssten","ru ckt","eil ig","ĠMann es","ĠWer den","gel assen","schen kt","Ġent kommen","Ġent gegen","ĠKomm un","Ġbrau ch","ĠFr ont","Ġje des","ĠschÃ¶n er","ĠDo dge","ĠDo yle","Ġar men","Ġweiter en","Ġber Ã¼","Ġzwei ten","ĠSchw ieger","pt on","ĠKo ffer","ĠJe den","ĠLe iche","Ġzie h","ĠBei m","wer fen","ĠPap iere","Ġirgend was","ĠFranz osen","ĠBru st","ĠWor auf","Ã¶s ung","Ġschick e","ĠGlau bst","ĠFein de","Ġfr anz","ĠMich el","Ġerk ennen","ĠPart ner","ĠWÃ¼r den","ĠSchlaf zimmer","rid ge","Ġbem erkt","Ġverste cken","ĠBom berg","ĠJung frau","ĠEur op","ĠSonn tag","ĠPist ole","ĠRa ke","ĠErfahr ung","unktion iert","ĠSitu ation","ĠSchreibt isch","ĠComm ander","ĠApr il","Ġtats Ã¤chlich","2 5","E R","K ay","b ibliothek","c i","d ney","f le","g reich","h y","h Ã¼","i al","i der","i bst","m es","m ass","o per","p ar","t reten","y m","Ġ Ã¤r","ĠS il","ĠS he","Ġn ennt","ĠD ien","Ã¼ ch","ir rt","ar at","ĠA dr","Ġk o","Ã¤ lle","ĠH en","ĠK auf","ĠK orf","ĠF ur","ier ung","ĠL eg","ĠL Ã¼g","Ġl achen","ann te","ĠT imm","ĠT ab","ĠT aschen","ĠP h","ĠV om","lich keit","Ġan sehen","Ġmit ten","Ġmit einander","Ġmit gebracht","Ġauf halten","Ãī ing","Ġt anz","ĠEr ste","ĠO hren","Ġaus zu","ĠC a","ĠC ent","ĠC Ii","ĠSt an","ĠVer ab","ĠVer suchen","Ġr ichten","Ã¤n ge","Ġnach dem","ĠWo hn","Ġwo hnen","lei ben","ĠGes prÃ¤","ĠBe weise","ĠRe d","ater mass","Ġgew onnen","ĠFl oren","ĠKomm st","Ġ2 2","leich en","ĠMit ch","ĠPro du","under t","ĠHo sen","Ġschw ierig","Ã¼t z","ĠRo eck","ĠSchw ar","ĠÃĮ ein","ĠNach bar","fÃ¼ hr","Ġgeb aut","ĠFall e","ech net","Ġrecht s","Ġvoll kommen","Ġlhr em","Ġbew egen","Ġinteress ieren","ĠkÃ¼ ssen","sicht lich","ĠGed Ã¤cht","ĠVerst ehe","ĠQu atermass","Ġhe ut","ĠSu ite","Ġc lever","ĠMot iv","ĠVerb rechen","ĠPat ienten","ĠÃīie be","ĠfÃ¼hl t","ĠAndre a","Ġch a","ĠFor schungs","ĠGeburt stag","Ġschm utz","ĠZe ichen","ĠKla ppe","ĠInform ationen","ĠÃ¼br ig","ĠGeschen k","Ġentde ckt","ĠDet ail","ĠBor is","ĠRech nung","ĠMacAfe e","Ġwahnsinn ig","ĠKorf u","ĠCIi pton","ĠFloren ce","ĠRoeck el","ĠGedÃ¤cht nis","S t","b lich","b ruch","b leiben","d ienst","d ings","i j","o is","p uter","r um","s w","s itzen","v erne","in ger","st ra","st ift","ĠS agt","an ger","ĠD enn","ĠD ruck","ar a","ĠM y","ĠA bt","Ġun w","it en","ĠN ene","sch un","et was","et wegen","Ġf allen","Ġf Ã¤ngt","ier k","ĠL hr","ĠL om","Ġsch la","Ġver antwort","ut ig","ĠR espekt","am te","Ġbe ob","Ġnoch mal","ĠC utler","Ġr Ã¤","etzt es","rin er","Ġp assen","ĠGe st","ĠGe org","ĠWar riner","ĠWo von","he ben","Ġre ch","Ġ1 6","ger t","Ġher unter","igen s","eid ung","ĠEn g","ĠEn gel","ĠMon pt","ĠGeh irn","Ġdurch s","ĠVater s","Ġger ettet","Ã¼t zt","ĠPf licht","inder n","ĠGen ug","Ġru in","ĠZu fall","Ġdort hin","ĠJe de","Ġbest imm","ĠAnge bot","Ġzie ht","Ġeigen es","Ġkrie ge","Ġbew egt","Ġerwar te","ĠVert eid","ĠAt lant","ĠEt wa","ĠSÃ¼ ÃŁer","ĠBahn hof","ĠSal z","uh igen","ĠSpinnweb wald","ĠGel egen","Ġfrag te","ĠVerh andlung","ĠAngeklag ten","ĠUngar n","ĠZigeun er","ĠVol k","ĠStatt halter","ĠSmit hers","ĠAdr esse","ĠTimm ie","ĠMonpt i","' re","E S","f liegen","h Ã¶r","k sam","m a","m aschine","t alien","v iel","Ã ¨","Ġ ,","Ġd ank","st Ã¼r","ĠS omm","ĠS elt","as en","as is","ĠW ell","ĠD reck","ĠI s","ar zt","ĠM ittel","Ġv o","Ã¤ ge","ĠH Ã¼","ĠN erv","ĠK or","al te","mm en","sch rei","Ġf ein","Ġl egen","Ġsch uld","Ġsch ief","Ġsch reibt","ĠT Ã¶","Ġver br","Ġan z","um s","ĠSch lie","Ġwar m","Ãī en","Ġt ro","ĠZ iv","is iert","ĠC ha","ĠC ott","ĠSt art","ol o","ĠVer k","Ġum s","Ġum bringen","Ġvor hin","ĠÃ¼ber legen","Ġsp reche","Ġges ucht","ĠSo bald","Ġher gekommen","ĠSp iegel","ĠAl ten","ĠAl ter","sp r","ĠÃī n","ĠBe w","rÃ¤ ge","ĠFl Ã¼","Ġste cken","Ġam Ã¼s","Ġgesch lossen","Ġgesch ickt","ster reich","Ġgleich e","Ġschw Ã¶ren","ĠRo ss","ĠkÃ¶nnte st","ell er","itz er","ĠDar auf","ĠZu kunft","ĠHat te","Ġbest eht","ren gen","Ġbef inden","Ġsol daten","Ã¼ss e","zeit ig","Ġrei sen","Ġdrin gend","ĠBÃ¼ hne","ĠVerst ehen","Ġna he","Ġen gl","Ã¶ff net","ĠSpr ich","ĠMe x","ĠKÃ¼ che","Ġerw Ã¤","ĠMac Kenzie","Ġschlie ÃŁlich","ĠHal tet","ĠVerschw inden","ĠMc Kay","Ġaufre gen","ÃīÃīe icht","ĠVerw and","ĠkÃ¼mmer e","ĠChrist ine","Ġgere det","ĠGrÃ¤ fin","ĠTerr y","Ġkap utt","Ġamerikan ischen","Ġanb ieten","ĠEle kt","Ġfin anz","ĠRis iko","Ġgehol fen","ĠClant on","Ġnachge dacht","Ġerfol greich","Ġstir bt","Ġfranz Ã¶s","ĠShe ars","ĠVerab red","ĠSelt sam","b in","f ter","h on","n em","n isse","w ehr","w bo","Ġ rot","ĠS zen","ĠS Ã¤nger","an walt","Ġn irgend","Ġn Ã¤mlich","Ġh ielt","ge sp","ei te","ĠW in","ĠW eshalb","te ktiv","Ġb at","ar u","ĠM uss","ĠM edizin","Ġein st","ĠH ill","Ġge lie","ĠG inn","ĠB ald","ĠB raut","ĠK en","ĠK rÃ¤","ĠF isch","Ġg ingen","sch rift","Ġf assen","ier ten","ĠL ab","Ġl hren","ann en","Ġsch wei","em a","em d","Ġden k","ĠT ro","ĠP ante","ĠP sych","ĠV oll","ind igkeit","Ġmit kommen","Ġt Ã¶r","eu ern","ĠZ Ã¤","ĠZ ahlen","Ġbe ein","Ġbe eilen","ill er","ĠC ross","ĠSt ahl","rÃ¼ n","ĠIhr es","Ġum gebracht","Ġvor wÃ¤rts","Ġlie ÃŁ","lei der","Ġnie man","Ġdar in","Ġzum indest","pp y","pp el","Ġste ll","Ġent tÃ¤u","ĠKomm ando","Ġweg ge","arr iere","ĠschÃ¶n es","ĠMiss ion","Ġweiter e","Ġber e","Ġzwei te","ĠRo dney","ĠLu st","itz ig","mer ksam","Ġange kommen","ĠLe ichen","Ġhel fe","Ġfre m","Ġgeb lieben","Ġbef Ã¶rder","ĠCo wbo","ĠBef ehle","Ġverd ienen","ĠHÃ¶r st","Ġbr achte","Ġbekomm e","ĠKrieg s","ĠSek unde","ĠMill ion","ĠSon ne","Ġerle bt","ĠGroÃŁ mutter","ĠVerb indung","Ġauss ehen","ĠBank ier","ĠDan ach","Ġvorge stellt","ĠhÃ¶ ch","ĠZeug in","Ġverab schieden","Ġspiel te","ĠMist er","ĠÃ¼berzeu gt","ĠWand a","si dent","ĠEinz ige","ĠEmm y","ĠGn ade","Ġirgendw ann","Ġta pfer","ĠBeweg ung","lad ung","ĠGentl eman","ĠMasch inen","ĠGesprÃ¤ ch","ĠSomm er","ĠPante le","Ġnieman dem","2 0","C H","a bend","b by","d ruck","f lich","h ie","k ung","l es","m ack","p ol","w achsen","Ġ uber","ch em","er ei","in i","ie bt","Ġs etz","Ġw etten","Ġm iss","Ġn etter","Ġh assen","ei de","ĠW Ã¤hrend","au b","ĠI hm","te ll","ĠE ier","ĠA x","Ã¤ hle","on el","ĠH olen","Ġge d","Ġge schenkt","ĠG re","ĠG Ãī","ĠB ur","ĠB la","ĠB ase","ĠK Ãī","ĠK ra","ĠK ennst","ĠK leider","ĠF ort","Ġg rat","sch uss","de ut","ĠL ehr","ĠL iter","Ã¼r gen","Ġl ern","Ġl Ã¼gen","ss el","Ġa Ãīs","ck ung","ĠP hil","ÃŁ ig","um b","ag g","ĠSch inken","ĠUn w","Ġgeh alten","Ġwer fen","Ġmein t","ĠEin will","hl t","ĠAn der","om eter","ff nung","os o","Ġst Ã¶rt","ĠWar en","he ad","ad a","lei sch","ĠIn ui","ĠAl te","us i","pf e","ĠBe zie","Ġdes wegen","gel d","Ġgew alt","ett a","uch ten","ĠFr l","Ġgesch w","stell o","ĠMit zi","Ġdurch einander","Ġar me","ĠMar ia","ĠmÃ¶chte st","Ġjem als","ĠAb sicht","uldig t","ĠGer ade","Ġho ffen","Ġerf reut","ĠRecht s","ĠSag te","bo w","Ġkrie gst","Ġbeg innt","Ġrecht zeitig","ĠCo stello","ĠVerzei h","ĠJoy ce","Ġben utzt","ĠDon ner","ĠCom puter","Ã© on","ĠGrÃ¼ n","ĠMÃ¼ he","sk y","ĠGesetz es","ĠFern sehen","ĠLind a","Ġ8 0","ĠTats achen","ĠZigar re","ĠRuf us","ĠBau ch","Ã¤hn chen","ĠÃ¼berras chen","ĠsÃ¼ ÃŁ","ĠtrÃ¤ gt","Ġzerst Ã¶rt","ĠBesser es","tra ktiv","ĠSchauspiel erin","ĠKal ifornien","Ġann ehmen","Ġerre icht","ĠBroad head","ĠPan ik","ĠbÃī ei","ezi al","ĠForschungs bibliothek","ĠCott on","ĠLab or","ĠEinwill igung",". ,","b Ã¼r","f re","g an","k ur","o f","o hnt","p ost","r olle","u ster","w en","Ġ 0","Ġd est","Ġs att","ĠS ter","ĠS ha","Ġh m","au ern","ĠM art","on a","ĠH or","ĠH Ã¤hnchen","Ġge logen","ĠB rot","ĠN unge","ĠF as","ĠF le","Ġf unktioniert","ĠJ Ã¼rgen","ĠL Ã¶","Ġl inks","re cher","em p","ĠT itel","ur ai","Ġver boten","ĠP a","ĠP ra","ĠP elz","ĠSch uss","ĠSch ande","Ġauf machen","Ġj Ã¼n","Ġt Ã¤","le cht","Ġbe ten","Ġbe fÃ¼r","se e","ĠEin spruch","and et","Ġsein es","ĠAn n","ĠAn zahl","Ġnach denken","Ġp f","os Ã©","ĠGe stern","Ġst Ã¶ren","lau bt","wei st","Ġre ichen","ik ationen","ug h","ass ung","ĠIn d","ger e","ne te","ĠSp ring","lo se","ĠAr g","igen t","sp ir","sp iegel","ĠGes und","Ġgew innen","im pf","Ġgesch ah","Ġdies mal","Ġverl angen","Ġblei b","ĠGesch ichten","ĠKl asse","atz t","ĠLu d","ĠBer ge","Ġzie he","Ġbeg rÃ¼","ĠWill kommen","teress ant","rot tel","ĠGew alt","fol ger","ehn t","ĠIr land","ĠWel ches","ĠBÃ¼ cher","ĠFamil ien","Ġbr it","ĠKaiser liche","Ġbek am","ĠKar ten","ĠPau se","ĠCol i","Ġ15 0","Ġwi der","Ġheira test","ĠEngl Ã¤nder","ĠSan cho","Ġbem erken","Ġhol t","ĠPil ot","ĠTre ppe","Ġung lÃ¼ck","ĠStu hl","ĠgewÃ¶ hnt","ĠBÃ¶ ser","laub lich","ĠSam urai","ĠApp arat","ĠMel ech","irk us","ĠAuft rag","mus ik","ĠAgen tur","Ġbeglei ten","Ġverlo bt","ĠHolly wood","ĠGere de","ĠVerste ck","Ġtele fon","ĠDetail s","Ġverantwort lich","ĠGinn y","Ġdest o","ĠNunge sser","2 00","b u","b et","d ung","g na","g ado","h eim","k Ãīich","m ar","m ent","u ckt","u mmern","v i","w end","z ut","z wischen","Ġd el","Ġd ick","st Ã¼tzen","Ġw itzig","ĠS Ã¼n","ĠS itz","un ehmen","Ġh arm","Ġh ieÃŁ","ĠW ache","ĠD un","ĠD ingen","Ã¼ lt","ir b","Ġb Ã¶s","Ġb ieten","ar beit","Ġein verstanden","ĠE cke","Ã¤ men","hr on","ĠH olz","ĠG na","ĠG ou","or de","it iv","ĠB and","ĠB ringt","ĠK as","ĠK ump","Ġzu ruck","ten t","sch lafen","sch iff","Ġf e","Ġf iel","ĠJ agd","ĠL achen","ĠL aut","ĠL eitung","ss heriff","re kt","re ckt","ĠT hron","ur a","ur ra","ĠP rÃ¼","ĠV al","ĠV eg","Ġan gen","ĠWas ch","ĠSch ei","ĠSch icken","ĠSch erz","Ġwie gt","ĠZ iel","ĠZ we","ĠO ffen","ĠO ze","ĠDie sen","ra in","ra ben","Ġwer d","ĠC ell","ĠSt ich","ĠSt and","ĠEin gang","and ro","ol og","Ã¶r ung","ĠVer sprechen","il ette","rin ge","Ã¤t zen","ĠÃ¼ber w","ĠÃ¼ber nehmen","Ġsp iele","ĠweiÃŁ en","Ġwo von","Ġges amte","ĠSo fort","Ġ1 7","Ġbes orgt","ĠAl ice","lie d","sp ort","ĠLie bst","Ġ2 4","Ġ2 00","age ssen","ĠMein st","stell er","ĠRu fe","ĠMit tag","Ġwurde st","ĠCh ink","ĠKl ingt","Ġber uhig","ĠMar ine","ĠPf ei","ĠSchw ein","ĠDen ken","ĠÃĮ r","Ġhal be","ĠDar an","inde l","ĠJe des","Ġir re","ĠLe b","Ġgest orben","Ã¤hr st","zeu ge","Ġbef ohlen","Ġlei den","dr eht","Ġwus sten","Ġvert rauen","Ġvert raut","ko w","Ġeben so","ĠBen zin","ĠHoch bahn","stÃ¤nd ig","ĠMad du","Ġgebe ten","ĠGed uld","Ġgek Ã¼","Ã¤l te","ĠwÃ¼n sche","ĠTr ick","Ġstar b","Ġverschw inden","ĠDir ekt","Ġverb inden","Ġkom pl","ĠSchwei z","ĠChe z","Ġbel eid","ĠReg iment","ĠSold at","ĠSelbst verstÃ¤ndlich","ĠBrÃ¼ ssel","ĠEngl isch","ĠGefÃ¼ hle","gew icht","Ġlau ter","ĠDienst ag","Ġel ekt","ĠLieb haber","ĠNachricht en","Ġverste ckt","Ġaufre gend","Ġvie Ãī","ĠBern er","rech ung","ĠGrisch ka","pa ckt","ĠHilf ssheriff","Ã¶d sinn","ĠkÃ¼mmer t","ĠDumm kopf","olut ion","ĠKun st","Ġverfol gen","ĠSchmer zen","Ġerled igt","Ġperfe kt","ĠBÃ¤ ume","ĠLi ppen","ĠMitt agessen","Ġschme ckt","ĠSc ot","ĠEurop a","hÃ¼ ter","schun gel","ĠerwÃ¤ hnt","ĠGesetzes hÃ¼ter","ĠGesund heit","ĠGna den","ĠKump el","ĠMaddu x","C la","M ar","b eh","b chen","d l","f or","j im","k al","k arte","l Ã¤u","r Ã¤n","u p","u ft","Ġs amm","st em","an en","Ġm arsch","Ġn ehm","Ġn ix","ge ht","ge stellt","ĠW est","ĠW esen","ĠW unsch","Ġb rechen","ĠA spir","Ġk n","Ã¤ hig","ĠH unk","ĠG i","ĠG ru","ĠB an","ĠK lo","ĠF orm","ĠF arm","sch lieÃŁen","Ġf or","Ġf rie","ĠL Ã¶sung","Ġl ch","Ġer sp","Ġsch auen","ĠT su","ĠT rotz","Ġver scha","Ġver bringen","Ġver such","ĠP Ã¼","ĠP et","ĠP os","Ġin f","Ġan zu","Ġmit genommen","ĠR inder","ĠR unter","ĠWas hin","ĠSch icks","Ġj ust","ĠZ eiten","Ġbe endet","ĠWir st","is ke","ol den","ĠAn ne","Ġvor ne","ist isch","Ġwo fÃ¼r","gt on","he w","rÃ¼ck te","lei ter","ĠIn s","Ġab ger","zu ki","lo ck","pp elt","im aru","ĠFl Ã¼gel","ze pt","Ġent schieden","ĠMa y","Ġweg laufen","uch st","Ġverl iert","ĠschÃ¶n en","art ier","ĠGeh alt","ĠPro jekt","ĠHo se","ĠGr unde","Ġru f","wo hn","Ġ3 00","Ġho ffentlich","ĠPar k","ĠPar don","Ġe d","ĠKinder n","ib el","Ġlang wei","Ã¤m pfer","komm e","pl os","ĠWill en","Ġirgend etwas","Ġjeden falls","ĠWissen schaft","ĠEx plos","ĠDe al","Ġscha ff","Ġverd ammt","ĠFil me","ĠhÃ¶r st","ĠWel chen","ĠVert rauen","umen te","ĠZie mlich","Ġwel chem","ath em","ĠTon y","sel be","ĠFu jim","ĠJan ice","ĠGesetz e","isk y","ĠCol umb","Ġauss ieht","hol t","ĠHal te","ĠGleich e","gew Ã¶hn","ĠEv an","Ġlau tet","ens ion","ĠBau ern","ĠPla za","Ġgesp ielt","ĠÃĸ sterreich","ĠWh isky","schn itt","ĠBrenn er","ĠKun imaru","ĠRuss ell","ĠBesonder s","ĠMÃ¤del s","ĠMÃ¶glich keit","ĠMet ho","Ġschul de","ĠMarg ot","ĠÃ¤hn lich","ĠPubl ikum","ĠKil ometer","Ġang reifen","ĠLÃ¼g ner","ĠAtlant ik","ĠGelegen heit","ĠVerabred ung","ĠbefÃ¶rder t","ĠAx in","ĠMelech ow","ĠGou verne","ĠVal eri","ĠVeg a","Cla ire","ĠAspir in","ĠTsu zuki","ĠWashin gton","iske y","ĠFujim ak","3 0","M au","d urch","h at","i ater","j en","k on","n t","n ach","n ungen","r am","u cken","z Ã¼g","Ġd reck","ie u","Ġs tet","an st","an ter","Ġm aÃī","Ġn ah","ĠW all","ĠW ider","Ã¼ ler","ĠSie g","ar k","ĠM isch","Ġein stellen","Ġha llo","Ġk ur","Ġk auf","ĠH unde","ĠH Ã¤l","ĠG ang","ĠG erne","it al","ĠB rÃ¤","ĠB ande","ach er","ĠN ett","ĠN arr","ĠK i","ĠK oll","ĠK urt","ĠF irma","Ġg n","Ġg il","Ġg ibst","ber eit","ĠL ast","Ġwir kÃīich","Ġsch einen","re den","re det","ĠV ill","Ġan st","ĠR ut","ĠR itt","ĠR ennen","ĠSch a","ĠSch utz","ĠSch Ã¤tz","Ãī d","ĠUn tern","ĠEr f","ĠEr ben","ĠZ eigen","ĠZ ehn","ĠZ wischen","Ġbe geg","Ġbe weist","ĠO pfer","ill en","ĠC ollege","Ġhier mit","ĠEin ige","ol f","ol it","ĠAn gel","il der","imm y","Ġvor n","os ph","Ġst reng","ad et","Ġre par","ĠHa ÃīÃī","ĠHa are","ĠDa v","ĠIn st","lo sen","sp rochen","ĠÃī st","pf l","pf el","men sch","pp eln","ĠRe ich","rÃ¤ ume","Ġgew Ã¤hlt","Ġgef logen","Ġ2 8","ver l","ĠGut es","ĠRu fen","Ġunter nehmen","bar e","ĠPro be","ĠKl ima","ĠGr Ã¶","Ã¼t iger","ĠAll er","ĠDen bow","Ã¤u de","Ġhal b","inde stens","iv en","ĠPl atte","ĠGer Ã¤u","wa ffnet","ĠfÃ¼ hlen","Ġe uren","ĠBo ur","ĠTo ten","Ġdr eh","ĠEntsch eidung","Ġerf unden","og ramm","Ġbeg innen","Ġausge zeichnet","wer ter","hau en","Ġgel assen","schein end","urt eilen","ĠAut ogramm","Ġscha den","ĠOk ay","ĠGeb iet","Ġtre u","Ġeinz iger","Ã© r","ĠwÃ¼n scht","Ġpro ben","Ġversp reche","wie sen","mÃ¶ gen","ĠUr teil","ĠSÃ¼ den","ĠAle j","Ġerw achsen","kehr en","ĠFin anz","ĠSelbst mord","ĠWe ge","ĠLicht er","rom ant","ĠfÃ¼hl st","ĠHÃ¤t ten","ĠLieb Ãīing","ĠhÃ¶ her","ĠSchlÃ¼ss e","ĠHu sten","ĠVerschw inde","ĠFei er","ĠPerson al","ĠTom bst","hil fe","sto ff","ĠEur er","Ġat men","ĠBrenn an","ĠAngeklag te","ĠVi ze","ĠSchmer z","ĠwoÃīÃī en","ĠFar be","Ġauft au","Ġsprich st","fil m","ĠSchlimm ste","ĠberÃ¼ hm","Ã¼ch tern","ĠTab l","ĠNerv en","ĠPantele jewitsch","ĠCell o","Ġstet s","Ġgil t","' m","h d","h Ã¼tte","i us","k om","o ise","t schaft","w eh","w and","z Ã¼glich","z unehmen","Ġd achten","in z","in ne","Ġs ingt","st ung","Ġw ach","Ġw agen","Ġw achsen","ĠS au","ĠS eid","ĠS auer","as k","Ġn ette","ĠW em","ĠW us","ĠD ich","ĠD utzen","au se","ar ten","Ġk lo","Ã¤ st","Ã¤ se","on ika","ĠH Ã¤nden","Ġge Ã¶ffnet","ĠG in","ĠG ift","ĠB al","ĠB eine","ĠB utter","ĠN ic","Ġzu recht","sch auen","Ġf au","Ġf eige","ĠJ immy","ĠL Ã¤ch","ĠL etzte","Ã¼r en","eh nen","Ġl ag","Ġl eu","Ġl eg","Ġer halten","Ġsch ne","re m","ĠT ank","ĠT rottel","ur ger","ĠP ater","ĠP ension","ĠV iele","at or","enn er","ĠR ie","ĠR Ã¼","ĠR ot","ĠJa mes","ĠSch ritte","Ġauf ger","Ġaus steigen","ĠSt ief","ĠVer mÃ¶gen","Ġal bern","rin o","Ġp rÃ¤","rei ÃŁen","Ġst ammt","Ġmehr ere","ĠSo gar","ĠDa bei","Ġab geben","Ġher an","Ġher kommen","zu kommen","zu stand","ĠAl id","ru h","ick elt","Ġgef ahren","ĠMa dem","Ġbrau chte","Ġverst Ã¤nd","uch s","Ġverl Ã¤sst","ĠJo u","ri b","ri ffen","ĠRu ssen","Ġunter halten","ha way","ĠPro zess","ĠPro zent","tel n","ĠRo ger","ĠSte llen","ĠSte ak","ell en","ĠKo gna","Ã¤u se","Ġgar ant","ĠSei ten","Ġselbst verstÃ¤ndlich","ĠBl ick","Ġerst aun","ĠGer ald","ĠAus nahme","ĠHat haway","ĠGlÃ¼ck w","Ã¤m pft","Ġkonn en","ers eits","ĠMÃ¶ gen","ĠTÃ¼r en","ĠCo oper","Ġbew usst","Ġbeh andelt","Ġbeh andeln","ĠEx per","ĠgroÃŁ zÃ¼g","ĠDe tektiv","ĠRei he","ĠPo pe","ĠIr r","Ġeinz igen","Ġversp rechen","Ġfr agt","ĠÃĦr zte","ĠQu ij","ĠGl ad","sel ben","Ġverw undet","ĠSchu he","ĠKrank heit","Ġverlie ÃŁ","Ġfl Ã¼","ĠMe te","ori um","ĠSek ret","Ġgeg laubt","ĠPau la","ĠCol onel","arbei ten","ĠZigar ette","Ġte uer","ĠGeschw indigkeit","Ġex ist","ĠHei raten","Ã¼nd ung","ĠIrgend wo","ĠPla ce","ĠBern ad","sto ÃŁen","ĠHol t","Ġat traktiv","gr und","Ġschwar z","Ġgebrau chen","Ġgebrau cht","geg angen","ĠKat ze","ĠBÃ¼rger meister","ĠCon tent","Ġstud iert","Ġdun kel","ĠMer rino","ĠschlÃ¤ gt","Ã¶l f","ĠlÃ¼ gt","ĠErklÃ¤r ung","ĠMei ster","Ġeng ag","Ġfehl en","ĠAbt eilung","ĠVerteid igung","ĠSchlie ÃŁlich","ĠPsych iater","Ġgrat ul","ĠMart in","Ġharm los","ĠAxin ja","ĠHÃ¤l fte","ĠAngel es","ĠAlej andro","oise lle","ĠAlid os","ĠMadem oiselle","ĠKogna k","ĠgroÃŁzÃ¼g ig","ĠContent ion","5 00","a al","a ÃīÃī","b au","d a","e ves","f ert","f angen","f irma","g ierig","h ei","h ang","i ÃīÃī","m Ã¼","m esser","p lo","s m","u den","u se","v ie","v olle","w eit","w ungen","Ġ organ","Ġd isk","Ġd schungel","Ġs inn","Ġw isst","ein lich","Ġh au","Ġh ung","ĠW agg","ĠD Ã¼r","ĠM agen","ĠM erk","Ġein iges","ĠA del","Ġk on","Ġk Ã¶rper","ĠH on","ĠH ank","Ġge pl","Ġge irrt","ĠG al","ĠG rie","ĠG ruppe","or al","or ten","ĠB urt","ĠB Ã¤rchen","ach st","ĠN o","ĠN ar","ĠN arren","ĠK na","ĠF Ã¶r","ĠF ass","Ġf ing","Ġf uh","ĠL ager","Ġer b","Ġer hÃ¶","den ten","re ie","re chst","Ġa Is","Ġder en","ĠT oll","ur n","ĠP ech","ĠP ack","ĠP ersÃ¶n","ĠP red","ĠV as","Ġmit machen","ĠR oll","ĠR iesen","ĠSch reck","ĠSch ritt","Ãī a","Ãī n","Ġt rifft","ĠEr d","le hrer","Ġgeh or","Ġda her","Ġaus ger","ĠC amp","ĠSt re","ĠSt amm","ĠSt eig","and al","ol s","ol ph","ft ig","ĠVer fl","ĠVer onika","Ġr an","ĠAn zug","Ã¤n en","Ġmu ssten","Ġp einlich","Ġst imme","ĠWar tet","ul ver","Ġwo hn","Ġre chte","ik op","Ġab l","Ġ1 000","est ern","ĠSp rechen","ĠAr ch","sp ro","ĠBe er","ĠBe llo","ing don","ĠWer t","ang ha","ĠRe eves","rÃ¤ umt","ater ie","ater ial","gel der","Ġgew ohnt","im s","ĠFl ats","ĠAuf hÃ¶ren","Ġkl ug","eld ung","Ġent w","Ġent z","ĠVor werk","ĠRu di","art y","Ġdurch ge","under te","ĠKl in","Ġschw ach","ĠMar sch","ord net","ĠEnt fern","Ġneu er","ĠPar f","Ġange b","ĠTo de","ĠFlug platz","ĠMik is","Ġkrie g","ĠWill ingdon","Ġbesch eiden","ĠEx port","Ġbez wei","Ġverm issen","ĠKÃ¶nig s","ĠTe am","Ġdrin nen","Ġfal sche","ĠMÃ¼ ll","Ġde utlich","ĠStra ÃŁen","ĠGra d","ĠbÃ¶ sen","gef unden","Ġerk annt","ĠLo hn","ĠKn ie","ĠSh angha","ĠFahr t","Ġspr achen","ĠEm il","ĠDoll y","nahm en","Ġ19 4","ĠHel ikop","Ġex plo","spiel er","ĠPr ima","ĠRad io","Ġmel de","ĠSta at","ĠEi le","ĠEi sen","ĠJu ana","ĠAk ten","ĠBed ing","ĠverÃī oren","Ġversteh st","ĠKlein er","ĠNat al","ĠEigen tlich","Ġerkl Ã¤rt","Ġverzei hen","ĠErzÃ¤hl en","ĠInter esse","ĠgrÃ¶ÃŁ te","Ġwicht ige","ĠgÃīau be","ĠTru ppen","ĠNicho Ãīs","bef ehl","Ġverteid igen","Ġfei ern","ĠCa f","Ġtro cken","ĠRoss i","ĠWin ter","ĠGre en","ĠBase ball","ĠBezie hung","fre und","ĠjÃ¼n ger","ĠColumb ia","ĠFujimak i","ĠRut hie","ĠUntern ehmen","ĠHaÃīÃī o","ĠTombst one","ĠGlad ys","ĠMerrino e","ĠShangha i","ĠHelikop ter","Ġexplo d","a be","b s","b eln","c y","c ar","e ct","f Ã¤ll","g y","g angen","g leichen","g Ã¼lt","h Ã¤lt","k n","l et","m osph","o de","p aar","r Ã¤t","r ieren","s ein","v ia","y u","z ar","Ã ľ","Ġ ra","Ġ eilig","en a","er en","Ġd anken","ie g","ie ber","Ġs etzt","st aben","Ġw ahren","Ġw ette","ĠS Ã¤","Ġm o","Ġm achten","Ġn o","un ition","ĠW Ã¼n","ĠD achte","Ġi ll","Ġi sst","au sch","Ã¼ m","ĠM auer","ĠM Ã¤rchen","ĠM unition","ĠE uren","ĠA st","ĠA ff","Ã¤ chtig","Ġge lebt","ĠG ei","it i","ĠB ad","ĠB att","ĠN ahr","ĠN eben","ĠK ol","ĠK raft","ĠK arriere","al tet","al itÃ¤t","Ġg Ã¼tig","sch alten","Ġf anden","Ġf uhr","Ġes se","ier st","ĠL ande","Ġl og","Ġl Ã¶sen","Ġsch mei","Ġa bend","ĠT rÃ¼","ĠT ot","ĠT ed","ĠT reten","ĠT anzen","Ġver fl","Ġver passt","ĠP ey","ĠP asst","ĠP orte","Ġin ner","be kommen","ĠR unde","ĠR anch","ĠSch en","ĠSch ie","ĠSch ach","ĠSch ur","ĠSch rank","Ġauf geben","Ġauf passen","ĠUn s","ĠUn fall","ĠUn mÃ¶glich","Ġbe ant","ĠEs k","is h","Ġaus halten","and y","ol ver","Ġr espekt","il de","Ġvor zu","Ġvor aus","kt u","ĠÃ¼ber fallen","rei ter","Ġwill kommen","Ġst Ã¤r","Ġwo her","Ġman che","Ġges ungen","Ġkein s","Ġher z","ĠSp ur","ĠSp itz","ĠSp ezial","ĠSp rechst","ĠAl pen","lo g","lie be","ĠBe deut","Ġdes sen","ĠWer bung","ab r","ab ine","ab eth","Ġgef angen","ĠFre ch","ĠRu pert","ĠMon tag","ĠWei se","ĠHau t","ĠKl ient","Ġweiter machen","ĠRo bo","ĠGen ie","Ġgem eint","Ġgem eldet","ĠSte pan","ĠHat ten","ĠAnge stell","Ġzie hst","ho ben","ĠBo ot","zeu gen","fl uss","Ã¤m t","Ġerf Ã¤hrt","ĠUnter such","Ġsu cht","ont roll","dr eh","ic a","esser t","ĠAnt hon","ĠdÃ¼r fte","ĠSeÃ±or a","ak ter","ĠgroÃŁ es","ĠKom isch","ĠSy m","Ġbet r","Ġbet rifft","Ġscha fft","Ġschwer e","Ġfinde st","ĠWel ch","ĠGed anke","Ġtre ten","Ġnett es","Ġzw Ã¶lf","Ġschick te","ĠTr an","Ġwel cher","Ġwel ches","ĠKam in","Ġstar ten","sk i","ĠGar ten","ĠGra b","Ġfr isch","ĠGl Ã¤","ĠhÃ¤lt st","chtig keit","ĠCar ol","ĠFÃ¼ ÃŁe","teil t","ĠThe or","ĠGroÃŁ vater","ĠauÃŁer dem","ĠCol etta","wor te","ĠReg ierung","ga ben","ĠHÃ¶ he","will ig","ĠFot os","ĠPr esse","Ġlieb sten","Ġbed auer","Ġerlau ben","port h","ĠFlie gen","Ġverha ften","ĠKell y","ĠSam stag","Ġzerst Ã¶ren","ĠPe te","Ġverge sse","ĠErinner st","Ġmerk wÃ¼rd","Ġschrei be","ĠÃ¶ ffentlich","ĠBesonder es","ĠArbei ter","ĠDreh buch","setz ung","ĠInsp ektor","ĠInsp ect","ĠVent ura","ĠTex as","ĠUmst Ã¤nde","ĠFeigl ing","Ġgrau sam","Ġrisk ieren","hy ani","ĠDien er","Ġrech nen","ĠKra w","ĠtÃ¤ glich","ĠLud wig","ĠbegrÃ¼ ÃŁen","ĠunglÃ¼ck lich","ĠOze an","ĠgekÃ¼ sst","ĠPÃ¼ ppy","athem at","ĠGouverne ur","ĠWider stand","ĠGlÃ¼ckw unsch","ĠVas ca","ĠBatt hyani","Ġabend s","ĠPey ton","ĠBedeut ung","ĠRobo ter","ĠAnthon y","ĠInspect or","B ahn","I N","I m","a he","a cken","b ten","c ine","d rÃ¼cken","d ruckt","e lle","g ott","j u","k ett","m aÃī","q ue","r ick","u re","u che","v ier","w n","w an","w etter","x is","Ġ arr","Ġ romant","er es","ie ur","ie gt","st u","Ġw ild","ĠS ki","Ġm e","Ġh arte","ei sen","ei lle","ĠW it","ĠW omit","es ch","ĠM itte","ĠM os","ĠM eilen","Ġein ig","Ġk Ã¼nd","Ġk napp","ĠH ann","ĠH eu","ĠH itze","Ġge mal","Ġge ko","ĠG it","Ġun n","Ġun gewÃ¶hn","ĠB asis","ĠK ing","ĠK art","Ġzu k","ĠF ang","ĠF eld","sch au","Ġf ange","ĠJ ess","ĠL S","ĠL ange","Ã¼r t","Ġl etztes","Ġer geben","Ġer Ã¶ff","Ġer setzen","Ġer gibt","Ġsch na","Ġsch Ã¤tzen","ck te","Ġin form","Ġin tell","be w","ĠU t","ĠR ein","ĠSch napp","ĠSch Ã¼ler","Ġj agen","Ġwar test","Ãī bst","Ġt rage","Ġt olle","ĠEr k","ĠEr innern","le g","Ġbe stellen","Ġbe geist","etz ten","ĠfÃ¼r chten","ĠDie b","Ġaus l","ĠC an","ĠSt ierk","ĠEin ladung","Ã¶r de","ste st","Ġkann te","Ġr ief","Ġum gehen","Ġvor Ã¼ber","ĠÃ¼ber f","ĠÃ¼ber leben","ĠWar st","ĠWar den","ĠHerr gott","rÃ¼ck ten","ik u","rie f","Ġdenn och","ĠDa x","ger icht","ger ichtet","Ġher vor","ĠSp Ã¤ter","ĠSp uren","ru ben","ru hen","ĠGes ell","ĠGes amt","ĠBe z","ĠWer be","Ã¼ck e","zen z","ĠNicht e","Ġhin gehen","ant as","ĠLie ben","Ġgen Ã¼","ĠFl ur","Ġste hlen","ke Ãī","ĠzurÃ¼ck ge","ĠVor schlag","ĠRu h","Ġunter stÃ¼tzen","ĠSe x","ĠSe chs","bar keit","Ġbesser en","ĠHo ffnung","Ġget rieben","Ġget rÃ¤umt","ĠKl ub","ĠRo ten","Ġgem erkt","ĠKo sten","ĠJahr es","ĠÃĮ an","ĠÃĮ ach","ĠÃĮ och","ĠAb schluss","ĠAb drÃ¼cke","ĠDar Ã¼ber","Ġsagte st","Ġ3 5","ĠMal ic","Ġarbei test","Ġarbei tete","Ġle ge","ĠÃľ br","mer z","Ġe chter","we der","Ġange stellt","fÃ¼ hl","ĠTo ur","ĠTo des","ĠNe d","per atur","og na","og raf","wer ke","ĠY ou","ĠY ai","ĠGew iss","Ġflie gt","Ġvert rau","Ġvert ragen","Ġvert reiben","ĠAm ado","ak ten","Ġaufge geben","ĠRei sen","ĠBlei bt","ĠPoliz ist","stÃ¤nd nis","Ġabge schlossen","ĠOn keÃī","Ġwusste st","ĠKrie ger","Ġfrei willig","ĠGeb Ã¤ude","Ġheraus zu","ĠWor Ã¼ber","Ġschick t","ĠGrÃ¼ bchen","ĠGericht ss","ĠVerst eh","Ġversp r","ĠGeschÃ¤ft s","Ġverschw unden","Ġverschw enden","echs eln","ĠKar l","ĠUr laub","ĠFÃ¼ ÃŁen","ĠSÃ¼ ÃŁe","ĠLei ter","ai II","du z","mitt lung","auber n","ĠÃīie ber","Ġzuf Ã¤llig","ĠBuch staben","ĠFuÃŁ kett","ĠAlex ander","Ġlieb te","ĠEv a","ĠEv ans","dent if","pro p","ĠRev olution","ĠTre ffen","Ġung laublich","Ġtoll er","Ġto o","ĠMc Kenzie","ĠgewÃ¶ hn","Ġvie ÃīÃīeicht","Ġfrag st","ĠJu gend","ĠLau ra","ĠWh iskey","ĠOl ga","ĠVerd ammt","ĠKomp ass","ĠNÃ¤ch stes","ĠOffizier s","ĠÃ¶ fter","ĠSol ange","ĠPrin zess","ĠTrau dl","ĠÃ¼berzeu gen","ĠSchauspiel er","Ġverfol gt","Ġerled igen","ĠPort ier","ĠBat aiII","ign al","ĠTausen de","Ġdun kl","ĠWil son","ĠLin ie","ĠerfÃ¼ llt","ĠTer min","ĠÃĮann er","ĠAbs olut","ĠSowjet macht","ĠAbst immung","ĠstÃ¼r zen","ĠGemein de","Ġtanz t","sw ert","ĠMy ra","Ġunw ichtig","ĠEng Ãī","ĠWell s","Ġfinanz ieren","Ġgeschw oren","ĠbÃīei ben","ĠLÃ¶ wen","ĠZwe ck","Ġfrie dlich","Ġersp aren","ĠPet ro","ĠSchicks al","ĠBrÃ¤ utig","Ġgn Ã¤d","ĠVill ard","ĠGerÃ¤u sch","ĠTabl etten","ĠJou v","ĠFÃ¶r ster","ĠKlin ik","ĠEntfern ung","ĠNatal ja","mosph Ã¤re","ĠAlpen fÃ¼hrer","Im porth","Ġgemal t","Ġgeko stet","ĠStierk Ã¤mpfer","ĠFuÃŁkett chen","F l","b il","b om","b ons","f und","h lich","j i","j our","k y","k au","k Ã¼","k Ã¶pf","l via","l cine","m essen","o pf","p ie","p rechen","r ats","s g","u ll","u ern","v ent","y l","z ur","§ ois","Ã §ois","ie ter","st r","Ġw inz","Ġw echseln","ĠS all","ĠS etzt","an Ã§ois","Ġm in","Ġm isst","Ġm indestens","Ġn Ã¶r","un st","ge iz","ĠW ichtig","ĠD ick","ĠD ita","au ffe","ĠI talien","es erv","ir r","ll os","Ġb ein","Ġb rÃ¤","ĠM as","ĠA ben","ĠA sa","Ġk ochen","Ġk aufe","ĠH Ã¶re","ĠH urra","ĠH underte","Ġge lei","ĠG lei","ĠG Ã¶t","Ġz it","Ġz eigt","Ġz ahle","it Ã¤r","ĠB ak","ĠB urg","ĠK id","ĠK einen","ĠK enny","ĠK abine","ĠF la","ĠF lo","ĠF angen","ĠF unk","ĠF Ã¤lle","Ġg olden","sch ritte","ĠJ enn","ĠL Ã¼ge","Ġl m","Ġl angen","Ġsch Ã¤men","el che","ĠT iere","ur er","Ġver urs","ck st","ĠP assen","ĠP ulver","ĠV ir","ĠV Ã¶llig","ĠR ang","ĠR iv","ĠSch eint","ĠSch auen","Ġt reibt","ĠUn ge","ĠUn sch","am ent","ĠEr geb","le um","ĠZ ent","ĠZ irkus","ĠO s","ser vat","ĠDu lcine","Ġda vor","is ation","is mus","ĠC ogna","ĠSt eine","ĠSt ill","ĠSt immung","ĠEin verstanden","acht ung","Ã¶r ter","ste lle","ĠAn w","ĠAn weis","il ien","om e","ĠHer rin","Ã¤t igen","kt lich","ot ter","lau s","Ġwo zu","Ġre geln","Ġlie st","Ġlie bes","Ġab stimmen","ĠSp ielen","ĠSp az","Ġander em","Ġwieder zu","Ġdar aus","sp ielen","sp annen","ing st","her r","ĠRe geln","Ġhin auf","Ġhin weg","Ã¼n ktlich","Ġbrau chten","ĠFr anÃ§ois","Ġgesch Ã¤ft","Ġsel ben","ĠRu hig","ĠMit leid","ha ar","ĠWei b","ĠGeld es","angen ehm","ess el","Ġsicher er","ĠGesch Ã¤","ĠCh auffe","ĠKl einen","ĠGr ant","Ã¼t ter","ĠPf ad","ĠRo bby","Ġgem Ã¼t","ord nung","ĠOr den","ĠSchl uck","ĠEnt l","kl agen","Ġru h","ĠNach o","Ġeinfach er","ĠZu erst","ĠFreund schaft","Ġneu gierig","Ġho hen","ĠBer lin","Ġwen ige","Ġob wohl","scha ften","ĠAnge la","ĠAnge lo","zei gt","ĠBo u","ĠTo ilette","ĠÃľber haupt","ib ir","Ġtrin k","Ġerf or","Ġkonn test","pl an","ĠUnter richt","ĠLand ung","Ġsol cher","Ġlei se","Ġleben d","ĠBis bee","Ġverh ei","Ġverh indern","ĠLuft post","ĠSy lvia","Ġbez ahle","ingt on","err t","Ġscha ffe","ĠKan ada","Ġheraus finden","Ġeinz ig","Ã© e","ĠtÃ¶ te","ĠTr Ã¤nen","Ġbr ennen","ĠnÃ¤ch stes","ĠNeu fund","ĠRicht ige","ĠSchloss es","ĠTh orn","ĠWochen ende","Ġkom p","ĠSchwei gen","ĠCar ter","anc en","Ġerw ischt","ĠGroÃŁ artig","ĠKont roll","ĠkÃ¤m pft","ĠHÃ¶ schen","ĠHeil igen","ĠHeil iger","ĠKr im","ĠPass ag","ĠAmer ika","ĠEngl ish","ĠFrÃ¼ h","Ġfol gt","ĠIrgend was","ĠRev olver","Ġert ragen","ĠgewÃ¶ hnen","ĠStell a","Ġherr schen","ĠSpan ier","Ġverab redet","zin ieren","prÃ¼ ft","Ġro ten","ĠSonn emann","ĠIdi oten","ĠNÃ¤ch ste","Ġmerk wÃ¼rdig","ĠNich ols","ĠSchrei b","prÃ¤ sident","ĠRuss land","ĠNord haus","ĠNord hause","Ġgez wungen","Ġgl att","ĠMor itz","Ġzuge hÃ¶rt","ĠBon jour","Ġerkl Ã¤re","Ġschul den","ĠWur den","ĠPal m","ĠRau sch","ĠKamer a","bild ung","ĠUS A","mÃ¤ ÃŁig","ĠKommun isten","ĠRake ten","ĠSil ik","Ġbeob achtet","Ġdank bar","ĠMex iko","ĠSzen e","Ġnirgend wo","ĠKrÃ¤ mer","ĠBla ir","ĠLehr er","ĠPra xis","ĠSpring s","wend ig","Ġelekt ron","beh Ã¶rde","ĠPos ition","ĠMay hew","ĠMetho de","jen igen","ĠKoll egen","ĠVize prÃ¤sident","ĠQuij ote","ĠMete or","Ġhung rig","ĠCaf Ã©","ĠGlÃ¤ ser","Ġarr ang","ĠWit we","ĠMos kau","Ġzuk Ã¼nft","Ġbegeist ert","iku yu","antas ie","ĠÃľbr igens","ĠPrinzess in","ĠBrÃ¤utig am","ĠAsa ji","ĠDulcine a","ĠCogna c","ĠChauffe ur","ĠNeufund land","ĠThorn ton","1 5","I son","a el","b and","b oso","c ag","e au","g ust","h Ãī","h Ã¤lter","i p","i sen","i men","j Ã¤ger","k es","l uss","n ant","o ber","p ed","p ath","r ennt","s d","s al","t h","t i","u ge","u Ãīd","w ur","y d","z ung","z Ã¼ndung","Ġ eh","Ġ Ã¤u","Ġ Ã¤lter","ch tet","Ġd ienen","in sp","ie den","Ġs aÃŁ","st adt","Ġw omit","ĠS eil","ĠS uch","ĠS amm","ĠS ay","ĠS endung","Ġm ie","un nen","Ġh eil","Ġh asst","Ġh undert","ge br","ĠW Ã¶rter","ĠD ach","ĠD inger","au re","es e","ir ren","ar y","ĠM m","ĠM s","ĠM ul","ĠA ÃīÃīe","Ã¤ chen","ĠH am","ĠH Ã¼gel","ĠH emd","Ġge packt","Ġge zeigt","ĠG ul","ĠG uter","Ġun bes","Ġz ahlt","ĠB onn","ĠB ai","ĠB yr","ĠN ell","ĠN ov","ĠK ur","ĠK wa","ĠK ikuyu","mm el","ĠF an","ĠF ast","ĠF inden","ĠF ertig","ĠF akten","Ġg ucken","sch eu","sch ri","sch icken","Ġf euern","ĠL og","Ġl n","Ġl Ã¤","Ġwir kt","Ġsch ar","Ġsch merz","re l","ĠT enn","ĠT ick","ĠT ant","Ġver wei","Ġver schieden","ck el","ĠP unk","ĠV an","ĠV Ã¤ter","ig stens","be g","Ġan d","ut ieren","ut nant","um a","um or","at ter","at tet","at ze","ĠSch aden","ĠSch lecht","Ġwar nen","Ãī assen","Ãī ikationen","am our","ĠEr l","le ge","rau isch","ĠZ will","ĠWir t",
[...]
